[PAD]
[UNK]
[CLS]
[SEP]
[MASK]
.
hai
,
to
ki
?
ko
nahi
ke
bhi
se
the
ho
me
ka
!
hi
and
is
h
i
aur
'
kuch
a
kya
😂
of
ye
nhi
in
k
you
na
kar
toh
-
he
:
tha
hota
liye
bhai
hain
ek
koi
mein
for
or
mujhe
it
but
apne
ne
s
jo
tum
sab
😭
gaya
this
ab
that
are
raha
hum
phir
aap
on
pe
wo
mere
log
kaise
mai
do
kiya
par
so
t
baat
aise
de
kabhi
aaj
main
abhi
be
with
not
rahe
®
🤣
chahiye
kr
tu
;
my
yeh
no
khan
m
sir
)
sahi
ya
we
like
time
ji
hoga
&
/
was
jab
diya
(
pata
they
thi
uske
kisi
have
all
hone
har
2
as
©
agar
will
tak
hua
logo
hu
amp
dil
aa
b
u
your
le
umar
karo
din
kyun
itna
ha
india
ni
just
1
from
rahi
can
wale
what
🙏
karte
one
karne
wala
woh
sath
karna
at
inke
kal
karan
love
if
khud
bol
tweet
rha
sirf
his
mera
dekh
❤
n
fir
baad
gayi
by
kyu
tere
she
up
lo
bas
bola
please
pehle
us
3
bahut
lekin
don
good
tujhe
meri
who
now
pr
pratik
nai
kam
accha
her
apni
0
kaam
aisa
kaha
has
*
tumhe
guru
ghar
out
hoti
yaar
only
desh
show
vo
people
him
rhe
about
know
kab
use
when
%
ap
modi
jaise
teja
how
why
baar
am
v
pakistan
our
maine
apna
lagta
mat
5
more
life
pyaar
naam
karta
gaye
unke
bjp
4
la
hote
saath
hindu
laga
usko
kaun
get
sa
them
team
their
ma
saare
raat
even
day
support
gya
say
liya
tab
pass
same
twitter
salman
kk
new
then
lag
its
bar
saal
kare
there
sakta
see
mil
jata
best
happy
also
dono
acha
pm
nahin
ja
badi
chal
itni
di
pta
ban
said
an
kia
10
too
galat
dena
que
think
hona
re
man
per
last
sakte
dete
bat
bad
mei
rhi
iss
game
fans
after
today
🔥
back
want
bana
e
aaya
jaye
very
year
uska
kro
dekha
party
🥺
o
r
unhe
yaad
acche
match
video
wali
d
some
yaha
much
right
hun
vote
matlab
follow
karke
thank
because
sb
hogi
jyada
krna
first
should
y
go
always
help
bc
ga
aata
beech
krte
kitna
fan
🙂
🏻
😍
bro
yahi
itne
stop
teri
temp
dekho
😅
aapko
yes
c
still
krne
world
post
isliye
family
problem
any
baap
never
hoon
had
way
movie
than
bs
reply
kon
6
haan
jayega
take
against
q
uski
here
un
well
si
band
congress
been
hui
😁
tera
really
feel
news
allah
indian
waise
make
birthday
need
real
these
soch
trend
other
fake
would
logon
name
media
god
7
+
may
lena
hy
hue
mre
lol
free
chota
were
nikal
jao
bb
did
dont
tarah
plz
thoda
mila
$
muslim
sorry
sach
ur
‍
guys
bahar
unko
deta
wind
tumhare
next
usne
exam
apko
🙄
over
gt
karti
behen
bina
bata
being
hawa
paas
inko
asim
oh
paise
usse
tweets
song
let
bohot
️
which
start
chala
alag
8
change
tho
better
baki
govt
live
riaz
dost
account
pas
khatam
bolte
most
bolo
l
maa
pura
tou
rain
many
sabse
imran
aaye
12
janta
got
kabar
duniya
wahi
police
jai
such
nehi
shamita
aapke
2021
every
acchi
years
true
krta
bilkul
hope
karenge
el
lete
kuchh
hamare
gye
saamne
bada
aage
p
sid
sarkar
9
en
ok
paisa
off
jeet
zyada
delhi
😡
isko
kitne
30
call
samajh
app
aati
boss
khush
te
ladki
jis
jana
jagah
person
kha
naa
100
pasand
ham
friend
💔
bus
g
aj
keep
public
agr
😊
thik
zindagi
iska
dene
pls
honge
bura
denge
big
jaan
choti
task
dikha
week
work
going
pyar
wait
thanks
give
come
jate
school
case
yahan
great
again
aya
walo
season
someone
👍
jb
es
😌
hein
keh
bi
sabko
jaa
karega
kis
😔
im
11
dekhna
bolne
jaldi
kahi
job
15
where
shame
watch
country
number
wish
full
phone
ta
😜
comment
bht
jati
tumhari
upar
diye
king
bolna
top
hay
dm
days
hate
beta
morning
yar
cricket
kiye
saying
aapne
nishant
dia
tk
check
respect
pahle
look
wrong
thing
election
abe
tag
doing
episode
mar
nh
isse
hpa
miss
ghatiya
try
block
bare
hume
made
night
aate
choice
gyi
chutiya
hey
end
bharat
side
everyone
mene
friends
khel
hara
done
tune
iske
milega
20
sy
lage
dusre
ram
yr
class
😒
galti
photo
papa
government
those
💯
down
km
point
jaisa
ve
kahan
kharab
han
😆
sakti
modiji
tumhara
both
hamesha
before
story
insaan
share
hn
ll
bhar
already
sare
aane
shayad
unka
waqt
reh
chor
theek
tv
unki
puri
pic
leke
line
likha
muh
dekhne
mile
strong
thodi
😘
something
shuru
jitna
kyuki
waha
mm
aisi
followers
bade
👏
aapki
rahul
money
🤔
channel
pa
batao
film
dimag
dear
without
uss
state
level
part
😀
face
wajah
actually
yeah
@
ata
bole
minister
dikh
pure
50
pagal
kohli
gai
singh
rakha
pak
chalo
sun
mean
maar
lene
samne
girl
power
raho
doctor
milta
rakhi
via
kitni
bolta
aik
long
samjh
apa
army
😎
warna
online
sure
heart
shadi
😏
things
into
nd
inka
🤦
called
jaate
baaki
gandhi
bhaiya
two
madam
test
reason
ky
cheez
action
win
apke
stand
clear
virat
bhul
card
da
kre
humare
list
tell
ignore
padta
kay
hm
star
sad
bhut
kidar
gi
care
sana
jay
nothing
aapka
cute
aayega
achha
understand
est
didn
cm
chalega
own
haa
♀
isme
viewers
wah
yehi
baare
etc
rakh
sahab
deti
sabhi
says
jane
chale
bhagwan
dekhte
achi
banda
inki
kyunki
lgta
does
chaiye
lagi
chahe
dega
question
must
play
ny
padega
chup
aye
aayi
dewp
♥
arey
everything
je
tabhi
skta
stay
samay
didi
fight
mtlb
age
gyan
bahot
apki
mind
single
ever
getting
yogi
doesn
ali
could
id
likh
insan
matter
old
rt
safed
seriously
jaane
jaaye
rehta
tumne
nazar
ache
😑
baba
makers
muje
lot
hindi
diwali
khushi
space
high
won
chalta
leta
date
social
li
words
suna
paper
gali
shaadi
2022
pay
mi
krti
🥲
anything
future
usme
hee
j
bt
month
word
teju
believe
samaj
player
under
comments
scene
home
dukh
baby
jaata
baro
road
since
open
khana
sher
youtube
btw
dharm
nation
bank
house
few
hath
taraf
dar
group
haar
isi
jayenge
exactly
00
late
pakistani
mast
ker
bacha
jawab
lga
okay
proud
once
thought
ese
banaya
read
hame
andar
karni
esa
rohit
target
13
skte
players
bollywood
du
jayegi
complete
issue
mt
🇳
captain
court
mam
jail
apka
rahega
hit
while
men
sara
china
talk
non
chahte
tumko
tb
krke
dard
hamari
tl
mandir
dr
🤧
punjab
hamara
religion
history
sabke
jaati
enjoy
=
shri
fact
series
order
used
beautiful
😹
anyone
soon
cup
ng
🤭
bna
laude
plan
gaali
final
women
🇮
isiliye
students
rehte
nice
whole
market
lie
hard
join
add
idhar
drama
kese
w
iski
remember
times
shit
tumse
book
leader
🙈
another
islam
sharam
phle
maan
daal
18
jese
aana
piche
naya
maharaj
atleast
trust
ask
aadmi
lekar
feeling
petrol
mr
lt
making
ge
subah
justice
kbhi
bta
wapas
vs
personal
kyo
corona
result
english
haal
ssr
🥰
sushant
😢
socha
tax
mood
guy
padh
mana
jarurat
chaar
audience
talking
company
through
chahta
😉
hero
important
means
tm
logic
left
different
mn
chuka
✨
law
type
business
college
agree
kehte
🤗
mummy
trp
literally
politics
hurt
door
thats
seen
parents
roz
😝
cant
delete
kara
winner
special
badal
others
haha
maza
saala
pad
set
phr
honi
min
playing
hours
♂
😄
place
rashmi
jaana
karoge
aunty
hahaha
👇
yah
ready
gussa
magar
faltu
devo
kahin
troll
office
hei
wohi
baje
chance
focus
negative
bb15
release
neta
wow
rehna
shah
idol
hon
😩
chod
kai
kafi
rs
sai
14
huye
bhot
laal
boy
trying
break
hisab
ppl
usi
lenge
para
chill
jan
system
👌
bohat
bakwas
dijiye
idea
jaha
kyon
sale
relationship
24
second
lost
busy
haath
wahan
vip
vi
watching
bhool
self
panch
away
hello
request
copy
mili
find
prime
jee
dekhe
inhe
sub
girls
sense
run
normal
fandom
around
dp
rona
21
lagti
human
aryan
enough
national
gift
🙌
40
kaafi
each
attention
sikh
25
daily
tension
19
banane
plus
together
karu
save
hogaya
1st
lia
pappu
music
utha
mom
dum
😐
son
told
trophy
ku
christmas
aao
light
maybe
coming
reality
acting
karwa
jisko
link
movies
dur
control
health
narendra
actor
hr
put
waiting
hindus
kijiye
looking
black
data
joke
muslims
project
jake
lg
dusro
con
mehnat
answer
💕
price
favourite
judge
paida
nafrat
congratulations
update
rampal
sari
kashmir
insta
saaf
humne
khane
et
sake
message
safe
cp
gonna
sidharth
character
deserve
ipl
form
🥳
december
jada
rakhna
16
air
rakho
yhi
😃
🙃
pal
mara
bolti
months
bill
shows
bhej
mann
ch
else
death
dance
fun
dekhi
fav
kind
fark
waale
content
😬
sar
serious
dunga
neela
dosti
chali
ise
private
th
leave
kaisa
gurus
eyes
body
knows
kl
👀
guruji
report
send
attack
dhyan
mujhse
positive
mobile
una
rest
por
nam
sawal
sal
looks
gay
during
khilaf
crush
started
🌚
vaccine
buy
situation
option
srk
sant
ayega
due
thinking
finally
brother
teacher
chakkar
bache
saw
bihar
political
giving
ik
possible
smjh
asli
lagte
sala
close
😤
coz
songs
bhakt
ak
ra
pero
low
dua
mumbai
funny
room
guess
der
bye
aake
bass
pade
ro
2nd
super
colors
jitne
chai
jahan
record
came
yha
jisne
blame
moment
bigg
aam
wife
anti
ati
dsp
hoo
banana
koshish
hospital
taking
credit
bheja
whatsapp
abb
bond
😳
ms
waste
queen
least
accept
afghanistan
mushkil
kehna
between
🏼
uncle
sympathy
peeche
dikhta
pani
having
hearts
rang
using
izzat
💙
ball
yo
needs
himmat
leti
forever
opinion
fail
utna
kisne
baithe
ajeeb
shyam
voice
beti
ghr
loss
fayda
unhone
till
service
chandi
nay
walon
proof
baatein
msg
bhe
ticket
become
promo
bane
sona
gf
double
simple
pehli
picture
performance
ada
karegi
shukla
mph
knowledge
zara
inn
city
profit
lagega
student
decision
fb
nalla
samjha
though
retweet
almost
karlo
humari
ako
bande
wc
language
ohh
humara
yet
education
yaa
17
south
neend
lakh
visit
crore
handle
omg
little
rehne
voh
aab
milti
asked
🎉
listen
food
alawa
paanch
makes
chuke
amazing
💖
speed
puch
aag
farak
ex
chhod
smile
mention
experience
jaisi
poora
jaake
arre
vaise
rss
expect
wants
truth
rate
humko
milne
defend
boht
fair
konsa
decide
70
sharma
dimaag
rehti
cool
darr
car
meko
career
google
went
aapse
marne
wese
head
aukat
train
1000
act
peace
kumar
mazak
loves
camera
idar
waah
ini
fd
abey
cancel
22
🤷
hot
vishal
boli
dal
west
aurat
paid
akele
easy
les
seat
small
saari
como
mulk
cut
mahine
sweet
kardo
malik
💀
dam
milte
bataya
past
saab
might
💪
yad
unse
community
war
haq
doubt
hind
father
bacche
milna
baith
bolega
bday
award
took
active
mc
socho
shi
💥
videos
simba
wanted
_
university
feels
kisan
il
likes
bring
yourself
flop
teen
exams
huwa
less
karen
note
dada
pain
29
dekhiye
general
working
role
max
ba
ladke
worry
fr
difference
pressure
ai
move
isne
sabka
ig
indians
compare
perfect
comes
cum
wapis
ghanta
nah
sharm
ishq
ladka
😋
badh
rahenge
rah
pada
kahe
luck
jiske
half
gyaan
los
tod
bete
hen
nae
humesha
tomorrow
famous
milegi
rakhe
rajiv
hogya
fine
al
roar
2014
poor
drop
pakka
husband
far
isn
jante
hype
according
given
kejriwal
bech
chalu
common
hell
cause
instead
sister
banta
reach
neha
happened
🌹
ss
pareshan
course
ott
couple
vale
wanna
thy
screen
hand
imagine
😇
x
shining
boys
karein
phele
prove
biggest
pati
lf
dino
halat
ground
chat
fast
issues
karunga
gold
🧿
padi
jarur
dekhta
gave
security
protest
bharath
__
topic
fuck
bolenge
contestant
kah
mauka
maaf
✌
rule
white
khair
asking
200
bless
didnt
niche
edit
happiness
red
gets
ti
mon
dream
zero
emotional
ah
idk
☺
blue
cr
khelne
khuda
kami
btao
definitely
chiz
welcome
dusra
following
crypto
pics
nz
area
railway
international
learn
udhar
played
hoke
lead
🤩
trending
jin
solo
toxic
friendship
short
interview
💜
minutes
dedo
statement
kii
worst
🚩
forget
woman
goes
f
weekend
bich
sc
meet
zinda
track
mask
aayegi
90
society
😠
abi
batana
😥
himself
outside
official
kids
attitude
development
bin
dikkat
🤡
taki
qu
eh
mohabbat
saale
khali
dusri
correct
grand
quality
terrorist
mo
masjid
bharosa
celebrate
khela
hindustan
president
views
board
example
create
lets
kisko
million
salary
paya
middle
value
kisiko
paani
ulta
ana
kutte
doge
lega
krenge
fix
umeed
banne
paye
loved
3rd
sahib
hii
va
namaz
marriage
jisse
dharam
degi
🤪
inse
opposition
reservation
kasam
2019
kaala
bachpan
behind
26
choose
study
sunday
krni
chuki
batting
😞
💐
jhoot
thora
mp
interest
jiska
soul
direct
jitni
23
rape
boring
dey
bn
bail
clearly
mudda
kb
chahti
farmers
babar
chu
seeing
biased
t20
skti
das
28
zarurat
seems
poori
voting
talent
dikhaya
baate
lakin
😪
krega
thode
ayi
dev
roj
elle
ghum
cases
yesterday
bien
bangladesh
stupid
ate
karma
success
confidence
acc
den
mereko
smart
key
alone
😛
qui
madad
instagram
jal
doesnt
kash
myself
marzi
kat
abt
chori
gadhe
mental
80
👉
matches
reaction
aadat
jeete
deal
👎
bf
whatever
pour
mal
promote
bit
able
absolutely
feelings
rubina
local
haii
padhai
information
500
hoge
jealous
supporting
bts
kehta
thay
captaincy
suno
gang
feed
hmare
achhe
🎂
felt
culture
mother
australia
cover
35
sk
dhoni
saint
admi
mama
eu
caste
gand
bhag
😕
raj
questions
continue
chacha
totally
rok
dec
hits
brain
hear
industry
bed
missing
ft
khol
bekar
happen
return
thaa
amir
jeeta
mare
vikas
ind
related
taliban
hisaab
notice
era
england
sin
dikhao
ago
bach
ps
bengal
jisme
pti
des
image
achcha
land
uspe
aukaat
joh
sometimes
bcoz
une
jaruri
zaroorat
targeting
met
slow
unfollow
dude
mostly
medical
khelna
akal
until
meme
comedy
cbi
except
based
sleep
contact
available
sports
gir
young
hae
dikhane
found
27
mata
towards
sey
pro
cannot
fire
rajasthan
uth
aree
skills
rishta
lu
🇵
2020
bcci
gareeb
loan
vala
kundra
speak
states
lang
chote
bara
60
huge
weeks
banate
supreme
crying
jae
sp
agenda
kiss
roti
expose
jinko
banao
front
otherwise
tw
subha
💞
babu
pucha
om
freedom
century
heard
🤬
either
extra
kanoon
hes
padha
wicket
shree
jara
barbad
current
hmm
bh
jaega
pretty
winning
hme
8c
sri
45
damn
thak
ad
excited
biwi
gill
faida
original
evil
status
pet
banaye
favorite
taken
dry
twt
elections
dead
runs
hug
bari
limit
lucky
💗
facts
shakal
del
dao
ri
2c
page
ladai
meine
pichle
problems
starting
lagaya
kra
london
sapne
drugs
peela
naye
buri
haina
count
bots
jise
lad
cry
dikhana
antim
cross
debate
pollution
31
soo
3c
explain
saja
host
hari
mang
leaders
speech
gandi
aath
kehne
sayad
rash
😓
voot
victim
later
sm
unfair
youre
dhadkan
sabki
dy
hahahaha
appreciate
dosto
aayenge
entry
tp
🇰
water
majority
agle
ruk
kaa
living
000
dialogue
💫
garib
lockdown
telling
layak
die
profile
ae
minute
murder
probably
arrest
keliye
pre
haters
pehla
bolke
akshay
fit
9c
hold
rahay
meeting
mess
musalman
humein
akela
1c
three
calling
sikha
science
jaayega
rules
banna
aai
force
kho
jald
7c
style
gayab
trailer
kaho
tagline
dad
solve
cest
position
entertainment
su
rahy
especially
vahi
varna
spread
dumb
laise
bani
crime
sat
ghante
❣
ones
deni
lye
barbaad
tumlog
33
negativity
nawaz
yadav
jaoge
gone
journalist
countries
ser
population
dala
maang
4c
members
6c
doctors
present
🏽
khoon
nobody
period
malum
cheap
ekdum
entire
internet
baal
pradesh
st
khade
bowling
banega
kaat
kabir
po
rat
event
bhala
rakhte
bandh
khayal
footage
risk
hadd
nanak
games
chomu
chalte
touch
tau
north
waala
chl
boycott
search
view
raja
aesa
upload
akhilesh
scenes
emoji
koyi
stock
increase
conversation
degree
gas
station
karachi
total
sbko
review
shot
ane
urdu
emotions
secret
sur
darshan
zada
demand
apply
response
achhi
votes
article
term
marks
knew
economy
aajkal
books
laws
kutta
kariye
inside
payega
completely
bacho
honest
turn
gust
marna
behan
lives
kise
foto
sbse
weather
gc
neeche
secular
sone
nahe
married
religious
sell
energy
details
priority
lijiye
hal
customer
promotion
ajj
inhone
nya
rights
research
maja
mu
cold
gae
jesa
personality
apse
step
box
chain
khatm
temple
rukh
offline
1m
thand
thori
bataye
😶
shanti
uk
samjhe
quote
master
mistake
address
godi
jinke
sham
hata
em
bio
ego
stands
milenge
competition
bang
baitha
lady
uper
akad
green
solution
khelte
ce
suru
fam
jeetne
early
khelta
poore
wa
maro
fraud
hair
saheb
^
32
dushman
kaisi
kh
nasha
icc
paa
jaga
jiski
chand
baru
khate
deep
react
advice
bhaag
actual
actors
bohut
sign
ar
jahil
pan
thread
rahte
katrina
innocent
protect
payment
weak
press
dekhti
asa
script
tried
pick
mujh
kyoki
member
offer
click
naman
bula
fall
mey
gives
meaning
session
planning
kari
version
sex
masla
angle
points
radhe
pray
allowed
khada
stage
sarkari
opening
sochna
chahie
certificate
killed
kaash
confirm
results
dein
forward
mujhy
bolu
ruling
kapde
corruption
ganda
physical
mark
ill
majak
52
officer
interesting
xd
contestants
dikhate
deserves
brand
😣
propaganda
sochte
write
mine
waali
bechare
deke
apny
notification
bandi
pair
sambhal
evening
stuff
america
zaroor
chinta
loot
bo
teams
fucking
co
poll
pakad
gobar
matters
baccha
tareef
worth
obviously
nikla
wishes
karungi
collection
dafa
border
lines
😱
nu
proper
jaao
ly
blood
bhabhi
sukoon
saara
kid
sunne
satta
khul
mantri
rather
dress
kabi
humse
democracy
yg
5c
bharti
ang
tbh
child
covid
violence
poster
wonder
___
300
foreign
process
genuine
income
blessed
central
clean
konsi
karle
cell
krwa
saalo
score
ver
insecure
dungi
convo
female
shoot
network
🤲
behtar
95
bechara
airport
khele
major
khabar
november
goa
lose
awaz
chunav
yrs
duty
fateh
politicians
khaya
films
follower
kismat
vajah
au
fat
stories
product
wedding
takes
clip
khans
showing
children
kindly
lots
purana
likhna
watched
hour
ay
needed
practice
azam
treat
kala
amit
budget
rr
saza
huyi
chalti
🤞
maharashtra
choot
las
complaint
hoty
rahegi
raaj
download
oo
celeb
🚶
catch
waja
virus
mad
abuse
insult
com
mass
scam
todo
kardiya
art
mla
lyrics
nehru
along
honestly
wont
meh
toot
winter
vai
journey
net
bike
tang
ca
💃
trade
successful
lord
larki
bestie
coach
connection
leak
chahye
lagane
krishna
incident
charge
supporter
likhe
photos
partner
league
anna
hasi
aese
shetty
viral
saat
handsome
gov
bu
48
bure
director
bhara
adi
tuje
jhooth
nada
rone
jabki
sidha
kaya
lahore
jio
rally
suspend
sabit
celebrity
hardwork
kyonki
seedha
rashid
ship
chief
padhe
missed
janam
anyway
chinese
naukri
ganga
maut
disgusting
likhne
shami
friday
kiske
bano
esi
happening
bhari
eat
hands
above
finale
pooja
maafi
reading
nish
vibes
bakwaas
earth
krdo
repeat
krlo
monday
hindutva
amount
bachi
cake
01
soft
ncb
including
rho
bhale
memes
😴
sadak
third
purane
rising
ahead
grow
kapoor
disha
aamir
moi
allow
accounts
tym
nishu
bomb
kahani
gain
awesome
bante
centre
changed
karde
✅
haram
hypocrisy
bore
nature
episodes
fighting
os
shahrukh
56
mute
ao
🥴
ass
perform
ager
34
suit
highest
char
hmesha
within
🔪
ive
utar
ac
wasn
interested
kashi
takleef
medal
thoughts
dare
sis
festival
ziada
gaane
99
dekhke
artist
fool
running
owaisi
born
section
shut
2024
akki
sarkaar
nonsense
hat
yea
tiger
dans
lagne
dose
happens
lana
unbreakable
sapna
tour
tan
glad
usa
dalit
rajput
🖤
policy
nikala
pehly
lao
👑
themselves
oye
generation
mode
dobara
💓
inshallah
lal
field
hv
kyaa
written
beat
easily
average
parliament
zaroori
mante
💚
mv
leni
dhang
akhir
property
rakhne
beth
bap
teachers
pucho
blind
75
digital
treatment
youth
mas
farq
baccho
below
ameen
kamal
aakhir
pita
strike
abba
cuz
training
popular
promise
eid
known
khi
iphone
driver
47
eye
pant
bewakoof
parties
frnd
49
congrats
padhne
chla
🤮
badla
near
sony
tough
maths
staff
zameen
spiritual
goli
bahu
mard
center
rahta
source
idiot
fc
healthy
dhoka
model
tujhse
dukhi
rich
bate
delivery
pai
travel
mirchi
cast
mae
mery
ungli
convert
works
jakar
🌝
classes
sochta
platform
condition
seekh
mubarak
punjabi
engagement
semi
lagana
false
anyways
discuss
dinner
pi
howa
matlb
ghus
sameer
toss
sunny
farm
coffee
currently
2000
bowler
sunna
tea
sudhar
constitution
bb13
gham
galt
marte
abh
random
hokar
hafte
aja
83
sort
chachi
lagao
taste
specially
achanak
profession
rkha
chemistry
comparison
avi
sound
laughing
confused
pra
narrative
actress
base
padegi
evict
loyal
corrupt
bir
moments
hashtag
behave
aacha
solar
quite
relation
kahte
anymore
gaana
55
vicky
thee
round
janti
difficult
maat
discussion
shirt
stream
mahan
hogaye
odi
rote
gadha
bda
kill
islamic
puja
holy
hoy
sick
hora
virodh
dreams
male
diesel
paiso
ans
bag
kiska
natural
baja
jokes
responsible
sasta
rai
whi
universe
wickets
lay
barabar
tribute
listening
argument
senior
06
skin
waisa
surprise
2017
index
anuj
text
leadership
whats
topi
calls
kehti
mari
2018
jyda
beyond
rahoge
obc
masti
remove
serial
shaam
fund
haven
yang
pictures
lelo
ayegi
program
jldi
criminal
pee
ammi
badhiya
nikle
cheating
kitchen
nayi
02
none
salo
stan
batsman
🚀
bash
booster
05
gaddar
vah
samjho
temperature
aus
useless
khilaaf
jinhone
matt
santa
isnt
wrna
jobs
gawar
drive
pel
dalal
united
justify
january
kum
ed
latest
laya
humanity
jeene
jaante
hehe
club
path
bhagwaan
cycle
wave
category
😈
mentor
pehele
koe
numbers
bologe
josh
haryana
uv
management
gujarat
writing
😫
kaunsa
thankyou
lge
pari
meant
facebook
dhyaan
failed
conference
baqi
provide
tarha
east
vaha
issi
nov
beauty
shivi
tournament
kama
choro
jain
concert
launch
yarr
file
birth
stress
z
personally
04
loving
walk
legend
adani
badha
lambi
upper
building
thinks
pizza
ias
shift
ussi
🤨
purani
coin
push
ben
crazy
replies
basic
natak
cost
dark
letter
👈
nautanki
defaming
🥀
kv
dekhkar
jam
jhumar
claim
khas
squad
march
🏾
pattern
info
batane
dog
uttar
fait
respected
killing
seats
36
sent
shiva
patel
woke
03
express
merko
banke
tweeter
permission
cmo
07
khus
kisano
holiday
hojata
bachane
um
dhan
asal
ceo
title
shams
teaser
understanding
janab
across
jaunga
naseeb
basis
football
dubai
opportunity
maara
koun
agli
pandemic
bheek
dekhenge
dekhlo
fear
aankh
romantic
balance
select
vali
race
complain
rn
ani
aani
tata
karun
faith
truly
liked
taaki
lovely
falling
chodo
sunte
mudde
dheere
ambani
spot
gale
jeena
behaviour
manta
whenever
nikalo
album
shop
hmari
irritating
kroge
politician
kadam
salvation
effect
🎶
fees
golden
asar
gana
strength
rasta
oil
andolan
ghalat
😷
kripya
code
math
sunta
importance
stadium
gym
08
ajay
machine
couldn
walay
strategy
waly
vacancy
ispe
kiski
romance
supporters
priyanka
bahir
hongi
breakup
eng
dan
marta
vese
sanghi
interact
oxygen
concept
balki
maloom
dila
sama
standard
yall
website
0mm
firse
banti
alg
dunya
projects
loge
mag
invest
speaking
contest
global
sit
dikhte
posts
blah
kick
nos
became
solos
merry
advance
parta
itself
editing
nau
pc
fully
dikhai
mentioned
sharif
pate
hatred
shaan
qki
chap
hotay
aas
gira
lunga
kisine
expected
andhe
abdul
trolling
realise
kardi
mentality
goal
snake
essay
ayenge
rishte
maal
afsana
apnay
rahane
hamne
doosre
cash
khaas
09
silent
tarike
46
lover
jindagi
nhii
jit
pooch
angry
tel
rakhta
hojaye
44
sachin
drug
mano
belongs
leads
sundar
devi
efforts
aren
boyfriend
worship
dunia
admission
sena
posted
bulaya
ladkiya
secularism
paste
piece
granth
memorable
individual
sikhs
awaaz
carry
sachi
khelo
laptop
anu
fault
jhut
everyday
suicide
4th
jodi
😖
"
badle
wishing
huaa
consider
lunch
mahadev
dekar
deserving
yours
connect
tonight
payenge
daughter
died
fixed
bhee
challenge
girlfriend
jeetna
37
150
sw
saudi
scared
breaking
51
reasons
recently
sing
vie
parivar
maze
bhakti
department
expert
kiu
tick
schools
khrab
companies
announce
khata
toi
demands
🧐
badnaam
unhi
favour
☹
suddenly
asi
bnaya
karaar
excuse
aaja
suggest
stars
burai
announcement
hoa
participate
depression
desi
harassing
colour
dharma
site
muhammad
ads
dikhti
hmara
bhare
tony
sang
paar
nikalne
aakar
ladkiyo
lane
tmc
weird
percent
table
straight
campaign
legal
recent
trading
wonderful
🙊
equal
workers
bot
bottom
dna
sanam
nakli
district
pride
reel
milke
whether
talks
padti
joining
gaon
doston
fame
ander
sexy
ase
bigboss
flight
hinduon
vaccination
jinhe
spend
safar
adat
keya
kissi
manager
roads
chances
metro
sabne
everywhere
among
hoi
kewal
struggle
shabd
afsos
transfer
lagate
yakeen
quran
ohhh
lucknow
lagata
guzar
color
moon
ameer
toda
jaya
gen
kak
zaruri
43
lgti
kidhar
hogayi
kahenge
warrior
ladko
expectations
minority
kinda
hockey
phool
rawat
whom
kapil
stopped
tereko
yung
sonu
inc
namo
scheme
sitting
rajniti
🤍
trip
bear
🌸
bahan
exist
aaram
likhte
foot
kee
created
hinduism
tarif
refund
gak
tbhi
traffic
bhejo
rab
sikhaya
banata
bhen
calm
guest
circle
christian
pathetic
amma
padhna
yun
banake
powerful
marketing
opposite
evidence
wear
park
chij
avoid
itv
amo
uda
publicity
street
permanent
huya
intezar
recharge
jannat
tickets
mohsin
bje
wake
kashmiri
obsessed
millions
ladkiyon
📈
bijli
bann
pandit
hopefully
rhega
vishwas
sec
mature
neutral
salute
lock
similar
prem
saturday
simply
rd
sharing
cringe
concern
dun
humble
dubara
farah
khaa
paap
growth
lee
puchna
pariwar
spelling
chah
jankari
mega
nor
shopping
attend
roop
faisla
setting
responsibility
paaye
afternoon
brought
ney
jala
pool
services
trh
hatt
supremacy
badnam
karege
decided
background
mau
tut
candidate
basically
legi
mujhko
konse
strongest
conditions
aor
gender
53
parh
kept
tech
kush
bethe
shameless
celebration
build
🤝
bhaijaan
accident
earlier
worse
wha
trends
rizwan
meanwhile
raste
baaton
bachhe
impossible
british
size
investment
swear
tujh
selfish
jani
rhta
patience
blocked
kren
singing
bolegi
shaheen
batein
plans
sha
yess
41
biryani
intezaar
chehra
lagaye
unless
africa
dukan
nagar
crash
weight
analysis
manga
vc
phase
confusion
rude
upsc
jayada
benefit
btaya
sawaal
talented
pitch
moti
bapu
asif
village
exchange
dain
likhi
🙁
valo
bigger
likho
av
faila
💩
mail
nawab
behn
kisaan
despite
stats
wins
pehlay
😚
yt
🏃
netflix
🤓
dalo
kaan
ladies
families
vhi
toilet
abbu
bd
educated
🙆
professional
bahi
sikho
town
zealand
gun
hassan
wb
rip
tout
enhypen
baato
names
technology
jau
utni
subject
🐍
mouth
pakda
42
selection
khudko
jaayenge
disappointed
prices
kesa
lein
haye
harkat
khila
directly
hotel
horaha
salam
aagaya
sky
sanatan
auto
everytime
nikaal
zone
zyaada
amazon
96
singer
rupees
dhamki
unique
gaadi
chez
options
kan
bechari
zarur
fixing
bet
agreed
roka
physics
msp
raise
forgot
height
praise
kutti
karain
azadi
bashing
purpose
aulad
financial
mane
mins
suar
esse
superstar
starts
lekr
sadiq
sr
manage
karane
effort
khatre
cutie
learning
khao
kharid
agent
dikhega
bey
epi
jinka
laugh
context
pyari
indeed
wise
web
idhr
bhaut
bla
arrey
sector
soche
vous
contract
cousin
vaccinated
terrorists
54
previous
rajya
sen
upset
ou
laat
😵
citizens
uff
bnda
tired
sardi
laye
memories
unn
🤐
torture
defence
wild
chlo
expression
six
cinema
400
bal
reject
dusron
prakash
lgi
bloody
ending
padho
anniversary
vips
💛
nikalna
trah
2016
garam
ijjat
megastar
gadi
vapas
jungle
actions
heavy
naraz
confuse
lynching
bitch
🥱
email
72
tight
five
kaand
kerala
bhav
john
relatives
brothers
sounds
regular
tik
ideas
champ
lagegi
innings
flag
imp
cloudy
dikhaye
throw
pack
proved
channels
tree
rani
employees
knowing
usey
apart
finish
improve
nind
maana
caa
dis
gst
divya
location
jaanta
nih
sahara
pdta
reels
shukriya
huh
mme
lies
apun
dikhe
chalane
che
presence
hurts
impact
further
chaye
rahne
bathroom
ghamand
syllabus
ice
paoge
blast
mota
besharam
ummid
achieve
badly
baarish
billion
🥵
jesi
bhaii
shooting
nashe
nabi
records
flirt
caption
realize
khule
involved
spotify
chehre
turant
illegal
divorce
cha
armaan
sune
zor
theres
broken
lower
trump
🖕
kbi
investigation
unity
hack
hrs
pichhe
dikhata
awards
hissa
akshu
karty
meray
bowlers
supported
turned
khiladi
identity
chalne
chalna
saman
cares
suni
nani
magic
10th
hall
ton
mentally
invite
dirty
crores
hypocrite
worked
fresh
ladne
multiple
reveal
rh
srf
tumare
sh
feliz
herself
draw
barish
fill
chocolate
tre
vm
hare
khusi
released
alive
lain
kita
hou
forces
gaa
admit
changes
gajab
chappal
however
btana
hh
ty
upr
commenting
kerna
rahna
sold
pahuch
sindh
theatre
idiots
kesi
tweeting
sea
🏆
jinda
places
chicken
failure
aankhon
sim
dill
upon
skip
jhuth
canada
jaty
yan
araha
remain
bahana
kregi
baji
jali
regret
darling
islamabad
cat
enter
design
paytm
motivation
nominate
tips
39
material
giri
terrorism
kadar
😟
papers
owner
ain
streaming
muft
plot
38
fikar
shes
august
store
characters
mission
garden
jayda
kata
kharcha
gap
wearing
makeup
ilawa
jinki
cbse
muze
zaleel
mamta
cricketer
gusse
masoom
🎄
zindgi
seh
existence
laa
dwara
bak
1947
screenshot
jama
patient
rhte
#
potential
vichar
82
jita
phirse
immediately
inspiration
mirror
kaal
jaag
ahmed
aggressive
engineer
inflation
infact
figure
bheed
cds
drink
medicine
rehe
emotion
jalan
✋
dilli
maare
hence
supply
winds
juda
sochne
pahele
hahahahaha
tameez
mantra
relax
gum
brahmin
clips
lamba
meter
nga
kharch
maintain
samj
dho
bik
thu
aware
ideology
posting
veer
inch
mishra
chhoti
jeevan
exposed
anchor
bhoot
frustration
safety
usually
looked
fights
intelligent
chalana
vida
arjun
pehchan
nalli
deen
civil
apple
kangana
spreading
tukde
earn
munh
jaenge
khaane
genuinely
marr
crackers
theory
agaya
doob
surprised
bachche
peak
insaniyat
jaayegi
movement
ndtv
tara
wouldn
mindset
🌟
kripa
updates
dede
priya
mahi
putting
mujy
capital
maaro
ways
galiya
pathan
ish
aagya
keeping
ritesh
shahid
sensible
mohammad
losing
gdp
teach
💘
depend
hogyi
pending
followed
lecture
shukar
kisse
rojgar
precious
sunn
boliye
aww
blockbuster
nyay
sunke
four
thappad
bhaga
cream
unfortunately
goals
dhund
batate
dangerous
suffer
ep
chupa
nikalte
var
schedule
patakhe
utne
shiv
dadi
bsp
balls
maarne
bought
👊
cheeze
user
93
upcoming
highly
khuch
hearing
lack
etna
modern
waalo
standing
theyre
mashallah
higher
tes
neither
😼
glti
pov
🎊
chalegi
selfie
khoob
muskil
algo
rock
dhakka
selling
kachra
jihad
flat
guide
favor
hasan
milkar
84
12th
opinions
abu
psl
american
rahey
batata
writer
asia
samajhte
radio
bataiye
joker
vibe
bekaar
mgr
hide
cancer
kahna
rajneeti
jor
surely
sleeping
ano
andha
uthaya
samman
messi
thanku
holding
jawaab
❓
declare
disrespect
padhta
jaat
btaye
former
often
jawan
whose
ekdam
becoz
shouldn
portraying
betha
pdega
supposed
distance
officers
karay
dege
loose
mutual
ranveer
achievement
funding
huva
kali
85
hina
jag
chapter
crowd
94
ama
jealousy
pump
kanpur
afghan
wrote
october
guts
jasmin
kartay
liberal
shock
chaka
😾
shown
slowly
terms
iconic
khalistani
mb
liy
sultan
replied
jha
cc
victory
doon
saans
nei
eating
garv
paate
usual
affect
57
seem
olympics
battle
ppp
najar
uni
khareed
2023
badiya
safai
iyer
timeline
leaving
masala
gate
karva
aajtak
corner
cap
blessings
annoying
ph
brilliant
karwaya
btc
audio
spiderman
himanshi
tom
cong
bottle
jari
finance
bardasht
everybody
rcb
reporter
kursi
forced
jii
avg
aman
excellent
iit
received
variant
dit
spirit
counter
er
destroy
maha
rank
openly
added
fatt
pk
shamil
nt
5000
bai
shilpa
jayege
kabse
sardar
honey
banayi
peaceful
mix
fursat
gracias
tarika
umer
farmer
keeps
sos
sabar
khyal
vaar
len
production
98
91
sending
somewhere
pyara
arijit
dat
prince
gotta
sugar
jaroorat
ravi
mob
khandan
shall
floor
achy
planned
military
attempt
bon
alot
chlta
shaheed
sanjay
interaction
spam
yuva
tests
shine
ghoom
batayega
zee
chose
delay
tf
reet
retirement
akshara
buying
password
aadhe
closed
becoming
mafia
bhula
sacrifice
phat
samjhte
humlog
resign
bhaiyo
rahiye
700
progress
insaaf
intention
jaroor
achieved
maximum
afganistan
mill
nuksan
types
raaz
broke
products
returns
vision
hamein
ee
chiye
panga
fashion
saved
nag
loon
lgte
ud
achaa
ir
jabardasti
tears
kasi
tejaswi
seva
raid
payi
clash
quiero
summa
positivity
rise
bhasha
gem
aadhi
champion
zindabad
bala
plays
tikait
celebrating
unme
excitement
kg
padte
threat
92
rahti
engineering
krunga
memory
sacha
chhote
filter
jub
janata
worried
marry
afford
saalon
ola
greatest
hardik
ashwin
prateek
mahila
tamil
apno
ekta
karana
joy
kutto
puncture
inhi
limited
doodh
thakur
ksi
chaat
dharti
ayesha
rahein
sansad
jaungi
daddy
backup
leg
nikalta
sanskar
smiling
jacket
core
hojayega
journalism
bato
guarantee
ullu
mujhay
rota
hogai
certain
satguru
zulm
sirji
commission
jammu
faire
sam
comeback
murkh
bachon
chilla
lawyer
maje
gulam
milni
roy
tiktok
gande
kitab
dhokha
milk
ladte
technical
enjoying
brahman
teeno
wasnt
overseas
vidhi
aaraha
professor
chopra
arab
economic
palat
daala
extremely
97
aditya
padhi
swag
pehen
namak
plate
becomes
chhor
chata
tells
tume
bhikhari
properly
notes
pocket
2013
sarcasm
calendar
overall
ldki
moka
kafir
temples
ake
citizen
range
logical
animals
grade
ghusa
thha
rw
unlike
pyare
thek
hoping
anxiety
bullshit
💋
dukaan
sentence
jesus
subh
reporting
stuck
independence
jaegi
wing
dekhni
mna
shadab
khub
obvious
saf
cow
inches
built
helping
azad
saboot
merit
naak
banned
jiju
nanga
honay
bahadur
nikli
smjha
decisions
glass
chutti
speaks
handles
speaker
pyaari
celebs
tip
uma
nikl
dollar
highlight
arrange
gaurav
uh
baj
overs
electricity
ipo
haste
tasks
khaye
padhte
events
khadi
bacchi
krein
keval
mange
5th
bath
direction
studies
gupta
varun
application
haseen
lagu
hotey
regarding
daru
battery
aram
creative
showed
yaqeen
uttarakhand
mafi
seconds
finished
stick
sbke
serve
kamaal
lok
✊
59
shared
yu
wat
karwane
krde
zabardasti
ladna
00mm
propose
hoye
survive
friendly
pareshani
hasta
86
essa
dari
aadha
shoaib
shocked
afridi
dimagh
injured
dikhne
hyderabad
passed
aaega
chamcha
admin
aksar
bnane
urban
funds
computer
although
prayers
ruko
ride
pull
ran
kim
feet
hahah
🇺
50000
😮
moral
sochti
plane
chaman
suffering
gadbad
udd
skill
frustrated
akeli
voter
ministers
fantastic
pd
pare
kun
qualify
helped
gif
vaccines
hazar
aaa
krle
gods
held
bde
majboor
sei
kiun
answers
87
uae
ration
todne
aka
🌺
tor
approach
statements
ganguly
mumkin
veg
shakti
sabha
huwe
caught
panic
minimum
deliver
yup
operation
takkar
kerne
spaces
karwana
beginning
sonia
twice
hamesa
function
kri
🤢
mahal
doc
angel
anpadh
username
gm
58
humans
zamana
hater
purchase
western
65
ring
gua
satya
hak
shant
drag
complex
ley
violent
helicopter
chad
piya
karogi
chi
jharkhand
harr
activity
bhae
tamasha
blaming
bhaad
ht
punishment
kisike
2015
buddhi
padne
dnt
subscribe
kerte
ghana
debut
biden
mangne
iq
lifetime
chindi
chle
protection
unnecessary
popularity
baithi
karnay
agla
dya
ladkiyan
chut
lakho
longer
injury
tone
introvert
desai
ami
chin
twist
kavi
sport
op
rice
garmi
mid
yai
messages
led
include
jaun
coaching
yahaan
sote
loog
buddy
daant
foundation
appreciation
shak
villain
aankhein
leye
kn
gud
gita
parivaar
olympic
asliyat
benefits
lagna
sl
babe
todos
damage
replace
dikhayi
luv
banai
voters
karwao
exact
maya
paying
kayi
portal
solid
bahane
⭐
rare
dogs
kishan
animal
rakesh
israel
br
bolunga
shipping
quick
mausam
behavior
ministry
pahunch
sehat
nw
boards
khubsurat
geya
babies
defense
mayor
particular
ntpc
tr
obsession
bringing
chhota
raghav
strict
groups
defame
baray
yoga
raval
spent
gn
root
flow
dii
jadi
shameful
lungi
bibi
finals
haat
indira
jod
environment
agay
darte
ankh
stone
yani
indirectly
chawal
dahi
fek
akbar
harsh
jabse
tumari
aae
hmmm
mazaak
89
hosh
butter
pala
jhagda
timing
emergency
italy
pat
roll
bueno
gunda
buhat
large
mitti
alert
bigad
malini
taras
bahr
soldiers
injustice
nuksaan
bully
june
jayen
maryam
wasim
assignment
dj
kisika
deny
taklif
anand
ist
kaushal
prabhu
noi
khatra
booking
classic
bowl
dekhega
jyaada
equally
edits
😰
argue
baari
gutter
alava
hahahah
taught
raqesh
russia
steady
prediction
disaster
banks
tripura
vacation
hasil
ugly
pvt
fever
named
inme
ganja
ten
likely
valid
uthane
bahen
standards
gol
arrested
mistakes
charges
clothes
access
suggestion
develop
lesson
ffs
loud
banegi
dalna
pradhan
rashtra
batau
clg
neet
compared
lele
liking
contribution
teer
amor
independent
mis
creating
maante
canadian
1k
chot
union
vijay
agency
chalate
karnataka
changing
gala
tt
criticism
zyda
chart
😲
leading
load
button
bitcoin
visa
muhabbat
ambedkar
understood
cheej
soy
destroyed
hony
savage
knw
brave
kosis
ey
saka
kahne
tay
hire
conspiracy
asap
dialogues
cards
billi
alliance
bhikari
apan
ziyada
nope
jija
janna
jinnah
aaplog
port
trs
expecting
several
88
anil
250
chura
judiciary
breakfast
kong
warning
kartey
cartoon
laate
awww
specific
retain
🌷
patni
pink
taunt
san
padosi
retire
moose
dange
patra
decent
draft
rts
shareef
liberals
sadi
telegram
adha
cooking
dd
aesi
🇦
dong
pakistanis
bisa
yrr
macha
dushmani
mien
hussain
tait
dancing
shares
april
converted
parts
polls
seasons
wi
00in
vha
required
jeeti
steps
lama
kamzor
bipin
aggression
edited
hostel
anger
saving
comfortable
🤫
mate
10k
tumara
mic
rana
gifts
branch
saree
aatma
aare
3000
mughal
faces
370
ummeed
mooh
rakhti
🕯
jeb
sided
ilaaj
sabh
kolkata
jatay
2011
daalo
frame
defending
tube
chhodo
yadi
sooo
tez
niklo
phd
😻
poke
moving
extend
fee
taiyar
stardom
tumlogo
advertisement
conversion
warner
candidates
aim
france
roshan
announced
guilty
haalat
bnana
imo
ehsaas
deactivate
puchne
peene
manna
domestic
aisay
register
ofc
pehna
nikale
imam
achche
bengali
thandi
thousands
afraid
lun
bhejna
khula
rubi
andr
celebrities
💝
format
neeraj
wakt
✔
vieja
practical
belle
officially
ended
rupaye
entertaining
rupee
mini
deserved
vos
areas
dalne
af
pahale
stocks
pandey
bimari
hindustani
dhara
tujhko
aly
cho
caring
puchta
khn
nifty
badhai
👋
🙇
relate
shoes
factory
0mph
pit
sbi
chlega
minorities
surrender
jack
journalists
loser
somebody
bell
🚨
anytime
equality
neglecting
daam
🇨
shayd
stalk
🌻
✍
ruin
maam
shipper
puche
noor
ofcourse
graduated
bayan
reports
wahin
mumma
unit
faad
pen
kary
accused
prasad
driving
lion
offend
silence
necessary
sabr
divide
influence
rupay
sada
cara
istemal
legit
rap
krk
pakde
karate
dikhi
fer
decade
ghuma
belt
dety
massive
tmhe
khaana
prize
pilot
filled
eternal
rin
120
magna
supports
saste
bechne
kaunsi
sajid
pl
zeher
jersey
eviction
ends
airtel
hamen
tweeted
adam
74
homework
jagha
mango
poocha
hazam
granted
rapist
dub
kidney
61
boi
sunai
concerned
hang
bheje
69
targets
daya
rkhna
bdi
warm
chaand
breeze
bartan
krdi
controversy
nomination
varanasi
accepted
fellow
tolerate
kamane
chair
jump
lying
jalte
kero
trf
parega
noticed
cos
hin
voy
comedian
wada
bhagat
prob
galati
aapna
doo
goat
bhii
harkate
bacchon
lil
73
switch
ilaj
flipkart
bhad
talked
folks
tabiyat
okk
10000
gal
banati
ary
vento
snow
dump
voted
wahh
detail
likhta
👻
🌼
pose
parso
graduate
jite
nft
rao
🏿
itihas
paras
bali
anywhere
infrastructure
tej
mahina
hc
cheat
ratio
wagera
mbbs
crisis
79
hamre
gunah
oct
lai
wall
lmao
shauk
fought
dip
bsdk
extension
rent
wallet
noida
feb
pt
belong
netao
saanp
absolute
summer
surname
manane
600
joined
stronger
vapis
sachai
terror
dher
july
software
fuel
cities
marathi
subscription
anupama
advantage
aasan
phoenix
islie
brown
76
criticize
1022
💰
seedhe
dale
issliye
ashram
mamla
hmne
gusto
spoke
troops
bhat
wash
jk
feature
pahli
gd
disturb
gunde
van
gujrat
paaji
chaddi
privacy
kamai
kerta
aawaz
bias
hatao
choda
galiyan
pandya
customers
tem
confident
courage
zoom
hd
hint
dms
reference
bachao
cabinet
maturity
sakty
fitness
gandagi
helps
teaching
fri
raw
flu
bindas
marega
naukari
abbe
prr
bachho
kahaan
grateful
gazab
chandigarh
cahiye
donate
reha
relationships
motivate
superb
hamko
⏰
package
epic
cheen
kucch
prabhas
mandi
academy
madat
rg
kharaab
harry
artists
sidhe
receive
debo
explanation
aqal
lab
urge
semester
idols
karr
vice
rahen
yaaar
conduct
lanka
writers
aisy
chize
thhe
river
assume
maulana
bull
rukna
🤌
wtf
thali
param
daba
chest
burn
pop
item
map
shor
settle
gy
irritate
header
lagenge
possessive
jayga
definition
81
ray
intelligence
spider
insecurity
ranking
kamjor
riots
bulate
depends
effects
assam
worker
ashamed
relations
lights
aint
soya
beshak
nose
dying
cricketers
reviews
cylinder
adhik
witness
hta
🎈
gur
dekhu
commentary
baas
relative
planet
insane
realised
android
church
judges
baton
perhaps
auction
stunt
evm
pesa
dk
bihari
shout
sensitive
zayada
sisters
crap
shots
currency
aapas
asan
rkho
saif
hotstar
assembly
0c
activities
completed
deaths
prefer
slap
learned
karaya
recovery
havent
tumhein
anybody
mahol
jameen
vishwanath
parti
ruled
attacks
kand
gk
uthana
aapane
pujara
🤘
atif
lala
hats
dhanda
chaap
khabri
dali
loyalty
noti
achchi
burning
diff
saas
considered
confession
dn
zamane
ii
jeeto
shaurya
🎁
sus
jagat
odisha
jhel
chakar
🤟
apparently
amar
communal
pushpa
frm
sem
ismein
kareeb
enemy
bharose
republic
mf
ips
mangi
dikhayenge
mahaan
kidding
bewafa
temporary
raised
raksha
retweets
print
seekha
pda
hundred
fierce
shukr
ssc
moots
jihadi
kud
fin
confirmed
bhaiyya
plastic
giveaway
kaif
ich
shad
exclusive
turns
🕉
dara
miya
mangta
resolution
trha
atm
aankhe
karam
hau
expensive
cz
umr
treasure
ahmad
😿
raga
childhood
pension
inspired
gobind
impress
chase
fighter
burger
🙋
alam
hospitals
cook
adhi
chuna
jaroori
fas
dek
pitaji
pin
europe
producer
junior
kuki
dilo
growing
toe
daar
bale
happiest
janwar
lazy
2012
manu
recover
jadeja
aadhar
articles
😯
apps
sacchi
sau
beloved
🤯
insaf
typical
zaman
neil
kher
dudh
sakoon
aurangzeb
ml
sidhu
yellow
manzil
horror
siwa
restaurant
beach
lagai
committee
jalti
halal
puchte
remake
maarna
boom
institute
mg
unblock
earned
scotland
rakhiye
dc
og
refuge
khaali
wth
godse
wid
prophet
ia
marji
iam
plant
pine
➡
sides
dedicated
thai
ghee
signal
pane
filhal
unknown
yahin
porn
71
survey
fikr
padna
passport
parha
kahta
vrna
lata
patients
seekho
pareshaan
snap
hassi
trash
haaye
dalte
mit
rail
ranbir
silver
bsnl
haiii
ghumne
vk
aulaad
icon
roya
sources
ajkal
passion
misunderstanding
asks
jaipur
krungi
tadap
labour
lgega
nrc
karao
bewkoof
recommend
jung
scripted
dedication
rates
sans
surgery
patna
30pm
batain
iya
dhak
arnab
beh
aandolan
corporate
insurance
bandar
pallavi
bheem
baik
khudke
playlist
ayodhya
volume
lagwa
decades
deepak
sight
aankho
samja
beef
hadh
paki
tmhare
employee
wealth
lips
passing
couldnt
reminds
adhikar
sasti
humor
mangte
leap
illogical
cars
buddha
heat
jeetenge
david
pelo
guna
pele
aajao
yaara
mahatma
selective
geeta
daaru
various
reached
larka
gb
kiyu
quit
mathura
menu
hardly
hojati
khelenge
yaheen
recording
criminals
somehow
facilities
jiss
biology
tiwari
umpire
moot
siraj
dropped
relief
khtam
construction
sry
ev
trigger
spin
comfort
😗
bnta
liay
maker
awaj
constant
samajhne
separate
laane
____
strange
appeal
suraj
pregnant
anda
reign
peoples
defeat
paaya
naal
kahu
abay
waqar
inlogo
prepare
oppose
🤤
bombay
dyan
careful
gin
ghalti
banwa
swing
sakht
charcha
mirza
orders
curse
🖐
mes
internal
nikalti
iv
2m
mun
💁
darta
khuli
fell
78
khushiyan
holidays
kareena
agya
lake
karoon
pcb
observatory
virtual
danda
hoe
killer
hanuman
patha
whoever
🕺
prerna
lift
bolkar
developed
values
khujli
offensive
jaanti
convince
pmo
kok
baahar
joe
economics
⃣
nepal
cheer
kehty
wifi
brings
mint
hazaro
dice
salah
padenge
doosra
25k
orr
kangen
arent
walking
iin
damad
samajwadi
lado
mortals
usy
faced
sachme
meat
haaa
kitno
marenge
6th
mehsoos
vlog
darpok
chun
alt
iqbal
bright
eik
authority
token
karny
involve
mrs
correction
qualified
saya
ble
dating
mir
wht
khet
sadly
bills
instigate
dhoop
connected
flying
cheers
organic
continues
slays
ct
franchise
mall
wildcard
gayee
notifications
apas
arm
humour
chairman
badhane
kio
mazaa
exit
craze
namaste
kartik
stood
digest
mian
az
boost
dee
divine
studio
champions
reduce
massage
anthem
sako
rula
samjhao
region
dikhna
normally
prayer
mainu
siva
khoobsurat
lut
dharna
quiet
5m
pyaare
🇸
asaan
bawal
chudail
kanun
routine
harm
vahan
cab
dekhle
experts
gam
dhire
arohi
karre
praying
shayari
telecast
pag
yatra
discount
shan
reminder
tar
sallu
finger
90s
desperate
wesy
tot
sharab
maari
elite
unemployment
pune
dor
represent
bachha
alright
blessing
deleted
deepika
bnao
udh
laut
inner
adorable
rkhe
durr
chaha
ske
77
kudh
climate
cheese
shud
fantasy
administration
radd
jindgi
greater
festivals
knock
lux
payegi
dot
halka
repeal
honga
nikki
levels
md
facing
manifesting
thursday
prachar
aache
soye
masterstroke
genocide
doosri
woo
oho
katora
testing
promoting
documents
japan
salon
momo
nigeria
ghussa
gw
horrible
udar
karey
popat
kissan
islye
banayenge
younger
smith
hollywood
swara
dem
gar
aish
bimar
sukh
pur
rush
mujse
surya
manmohan
lade
saray
dhandha
brainless
anak
jaani
rhti
pok
lakhs
hugs
fati
bhaiyon
blm
aaise
ele
alpha
hila
grp
wouldnt
uno
5k
2007
hag
thanda
lea
nahii
cheezein
bestfriend
tai
ishan
allegations
zomato
badalte
vas
heaven
slot
bahat
waalon
62
shikayat
pang
lived
hopes
aaoge
bcs
800
wide
masih
quotes
dislike
turkey
hatya
batch
rahunga
barometer
poetry
ghat
charm
increasing
bary
arahi
kate
toti
guard
badalne
shayed
sales
100k
cameo
lac
akhtar
dire
hidden
hass
vir
holi
poco
dos
otd
bp
kin
ward
parag
110
glorious
koo
bhutto
sunset
gane
ghulam
emotionally
collect
atankwadi
ability
sadhna
finding
mod
swami
display
naagin5
akhri
mum
jahaan
letting
saktay
kisiki
pages
criticise
error
slaying
ruined
patta
taxes
nalayak
investors
wondering
uncomfortable
tapi
warriors
truck
tow
kheli
lone
lagayi
maalik
prof
grace
🔔
technique
pora
mst
aansu
roo
comparing
salamat
garibo
danga
casa
64
bichare
neech
dawa
mudi
abusing
terrible
limits
lagake
aq
naach
timepass
pataa
xmas
realized
masha
percentage
selected
judgement
racist
overthinking
tabse
1971
janne
ceremony
centuries
puchh
toota
revenge
samjhta
premier
rae
baaz
monthly
jiye
dikhawa
trees
theka
fed
nahee
crack
batayenge
bhatt
deya
tomar
feminist
ignoring
rajeev
kalam
bhim
assignments
dates
moh
chate
uchal
mani
bah
usmein
resources
deh
tarfa
gia
naw
rrb
uber
awareness
realme
cancelled
constantly
trick
sahb
couples
bolungi
salaam
claims
trouble
angad
podcast
sah
courts
fly
samjhne
diet
immunity
limelight
crossed
commitment
wich
fingers
imagination
arms
inbox
mamle
csk
waley
bachaya
fazool
mahesh
hole
dilwa
colleges
hk
doh
buss
dhona
kaunse
preparation
soap
ankhon
fandoms
baten
jute
fawad
sunti
policies
niklega
resolve
deewana
capacity
usdt
janm
appreciated
chahne
rating
peet
zakir
khwab
itny
expressions
orange
revenue
ideal
bhagwa
chora
racism
urself
anime
kane
cried
vich
khoya
mike
mah
gyani
aasman
☕
ulti
implement
bhartiya
ara
vyakti
employment
ghost
ul
eventually
apologize
gila
behas
paagal
makan
mulla
pushed
kholi
breath
sabkuch
rhea
jas
ks
kesy
genre
perspective
thok
maanta
wafa
fish
ace
ignored
highway
shreya
extreme
khudka
hazrat
sewa
hilarious
siddharth
thru
typo
yakin
sasural
quota
demotivate
yesss
aakhri
removed
bnate
samasya
clown
rizvi
sherni
lagati
respond
sabak
patch
edge
ups
tn
boca
achay
amitabh
sae
gurudwara
elected
bichara
samjhna
delivered
pagla
khelti
pesh
akar
enjoyed
bajaye
grey
bhaisahab
sochiye
users
dhoond
abki
punya
pol
merci
entertain
tmhari
trap
portfolio
ensure
yee
manana
mars
clouds
panchayat
marke
kholo
sunni
feat
pde
khaate
vaale
bhook
electric
telugu
bachega
aloo
chupke
shiddat
flights
manipulate
camp
outfit
samsung
bhaisaab
jhanda
horahi
heroes
generally
agencies
🤕
nationalist
remains
👁
savarkar
automatically
aray
raju
features
swagat
reverse
aside
eve
majboori
aiims
xi
paane
fauj
raaste
kamar
quiz
manti
hori
corridor
yay
typing
uthate
khola
rallies
vat
donation
bite
rhaa
aara
pir
faaltu
durga
ju
colours
soil
bay
rehi
remind
capable
9th
leaves
kabil
disagree
feedback
premium
fayde
zardari
pranam
effective
brook
television
jeans
❌
7th
jaakar
server
chakki
genius
gautam
debt
governance
banakar
depressed
samjhi
aah
jany
pct
taang
spoil
nepotism
tmhara
blanket
jaari
kung
tap
dou
roye
bachchan
vu
bench
bhaav
cigarette
checking
khatarnak
mamata
khamosh
craft
banenge
officials
halo
bachana
bonus
login
aagaye
organization
shab
sapno
wine
inform
turning
bhau
gul
dravid
empty
sood
hatho
mentions
ufff
kase
khati
kkk
seek
maane
sanatani
uthao
abhishek
deposit
bachay
suggestions
antar
forgive
chutiye
dignity
houn
bajwa
experienced
namibia
milo
dollars
devotion
nokri
noise
zimbabwe
sheikh
sms
chara
silly
nicha
mee
nowadays
atta
laaye
rose
editor
chanda
destiny
🗿
nak
maange
aapni
abhinav
aimim
dosh
window
bajrang
nominated
nol
phn
unpe
pissed
habit
pathar
tenu
vel
kaar
ultra
engine
bachcho
moved
asha
gentle
mh
cheezon
dair
ghumte
nick
primary
saccha
coins
intellectual
emojis
ghareeb
surat
proposal
irony
pace
berojgari
colony
🦋
ayush
restrictions
tc
zuban
scale
eliminate
opened
101
paint
maarte
opportunities
formula
legends
ils
bhed
affected
itta
secretary
sheet
arguments
ultimate
teh
yep
nigerians
sbka
arrogant
lame
hansi
baka
adjust
samajhta
iron
samajhna
roast
governor
curious
bakri
jiya
awkward
beard
kale
randi
washroom
physically
considering
highlights
bored
approval
diamond
anokhi
nigerian
haj
minded
jasmine
chipka
hil
prepared
preshan
factor
nations
guilt
ter
khalistan
feminism
amal
tasveer
pity
vedio
pyaara
condemn
james
cutting
yeha
committed
chutia
kuda
bulao
chadha
treated
130
thankful
dir
wade
transport
baath
minor
naah
yojna
seema
fort
musalmaan
heroine
jst
sota
promised
kilo
parcel
jesy
ishwar
picked
declared
yesa
meetha
rahu
poverty
patthar
hans
chaal
pasa
incredible
increased
cheezo
dham
secure
snapchat
perfectly
tambi
loo
tuesday
jaiye
hrithik
lambe
neck
communication
esko
talwar
68
cinemas
suspended
keyboard
smell
mehnga
sch
persons
boldo
katne
66
paidal
bappa
aty
bom
multi
quickly
unable
zameer
exercise
encore
invitation
pher
jimmedar
sideline
freaking
raah
dhanyawad
ella
hehehe
largest
jindabad
jayein
liar
vohi
pleasure
dumbo
sbki
🥶
rokne
submit
sali
dew
putin
religions
bajay
chak
todays
naaz
maano
alcohol
bhajan
september
throughout
khone
appointment
coincidence
thin
ajao
hafiz
nct
mily
mim
🐕
unstoppable
hamse
jnu
2010
jr
harshad
lovers
kaka
bunch
korea
1984
aarti
pichli
🫂
newspaper
opener
bhejte
naaa
tas
butt
fm
apman
vada
pao
grave
retired
gharwale
🎵
pori
topics
nikah
scriptures
sudden
emo
gadhi
kadi
t20i
spending
parle
peda
sanskriti
67
bashed
lety
medium
subsidy
ravish
simp
slogan
lagay
outrage
rhenge
wajha
genghis
kaaran
khudki
saga
dawood
63
nivedan
nitish
mystery
earning
bangal
christians
fools
jinse
dictionary
bird
ilzam
affairs
wwe
spoiler
daan
danger
banaa
acts
sabi
sword
scholarship
bounce
ash
areee
imaan
hitting
🧡
karm
agaye
babri
fixer
curfew
saabit
sse
shy
willing
takat
uthna
jakr
maqsad
gire
mayank
eo
2k
isis
loop
bankar
jalta
dish
usay
drawing
digger
penalty
tamatar
bangalore
tonti
february
mala
marvel
trial
checked
aagey
samjhaye
ews
tah
patti
naina
bout
strongly
shoulder
bhoi
arvind
jobless
bhabi
gorgeous
itnay
kph
psychology
cs
poch
fate
taehyung
mandatory
lund
azhar
suitcase
bullet
cloud
rocket
uppar
jalne
aagye
scary
uspar
hia
nous
janch
pretend
uthake
overcast
closer
anushka
khara
dekhunga
apney
aarha
postpone
inspire
samaan
bolege
deeply
bajrangi
superior
pg
302
batati
ehsaan
dai
stupidity
haddi
chip
jine
nasa
sou
semifinal
reported
tarf
worldwide
scientist
kp
daur
bagal
association
counting
halaat
visible
humain
padai
older
updated
140
chalata
attached
sexual
dhundh
ussey
discrimination
ant
tek
registered
moves
judging
mania
upa
karra
hosakta
odd
hearted
dhakke
daali
peshawar
gee
compliment
vehicle
interviews
johar
nia
🤑
lalach
chadh
shubh
bra
rahat
manhoos
poocho
bil
bold
texts
buht
tareeka
sacchai
ela
registration
tumhre
winners
thook
vishwa
offers
matalab
semis
inspiring
lagra
bhenchod
coverage
mia
theme
bhejne
badhe
karwai
headache
route
mahira
kitaab
rubbish
bible
scroll
remembered
welfare
bhashan
kaali
1016
wtc
overacting
attachment
bareme
31st
division
lit
niyat
hamla
beings
darna
kahega
daha
wapsi
verify
balochistan
crimes
masters
pakki
samjhane
abtak
dekhen
legacy
⚡
jivan
drame
smoke
sanju
kit
ourselves
sol
parking
daalna
therapy
💎
papu
atay
roaring
mohammed
ahh
ids
hasne
lalu
shivaji
abhimanyu
sikhna
drunk
democratic
trolls
11th
apky
daalne
tayar
tareeke
justification
🇧
uses
infront
disease
royal
chahata
souls
zarorat
communist
unho
istemaal
reham
ale
ankit
nach
cousins
convenience
dera
hafeez
azaadi
mout
🇬
translate
garibi
continuously
adhe
sweetheart
cheater
janay
halwa
isa
mahino
caso
translation
manne
shocking
til
dijo
🇷
favs
tim
struggling
saku
idher
kom
naki
programme
grande
chodke
pila
partition
performed
murdered
apk
cult
concentrate
blasphemy
sochenge
honesty
taiyari
wallah
aaisa
krun
tail
nara
shok
gifted
uthaye
vent
cyber
paka
shia
oops
ambassador
parda
andaza
naughty
tok
ridiculous
bakra
worthy
shyad
1015
bazar
aga
adult
hasn
publicly
produce
italian
8th
spinner
ronaldo
hating
uniform
beer
wisdom
provided
masks
guidance
parr
chidiya
kone
chalaya
tin
questioning
regards
javed
chennai
kae
prank
chowk
chalay
hojate
gey
situations
qismat
french
precap
timer
leya
visited
karwate
agy
celebrations
youtuber
4000
peeth
cruise
20000
shiksha
emi
pera
wajh
kamaya
sache
occasion
nana
shaheer
chahal
nainon
garbage
graduation
1010
shower
aajaye
musical
dadhi
ptaa
hafta
kaahe
qadar
farz
👆
bother
baaten
mastermind
bae
dressing
nn
shaq
clout
rooh
asad
defensive
thousand
💦
ratna
dekhungi
wednesday
paison
rejected
samjhaya
aajate
ff
nigam
lagg
bread
pey
nikali
pushing
aqi
honor
vikash
akhand
fomo
jaanch
himat
udaas
verified
chan
chodh
aarahi
rakhenge
ped
khai
dhawan
cctv
haya
bridge
badshah
critical
gaming
kushi
targeted
houses
marti
kardia
sentiments
106
improvement
mujhey
sucks
tuk
certainly
nearly
atyachar
jamin
ajaye
sanskrit
gauhar
sunaya
geo
🤙
philosophy
🇱
lege
bff
kheti
sadhu
listing
dancer
relevant
scored
method
overrated
logg
eth
discussing
license
manao
koii
jat
sila
vipaksh
chaahe
manchester
guests
upto
jagh
punch
forecast
bachy
victims
siyag
mohalle
mosque
fatima
packet
flirting
newzealand
zra
mukt
huay
beg
begging
aslam
dhayan
chit
weekly
🪔
3m
doosro
blindly
mundo
presently
clarity
bharta
manish
promises
badlo
irada
1017
ns
underground
hypocrites
watan
pasnd
🎅
abbas
paata
dhamaka
learnt
aajata
sambit
arha
karya
kutton
dogi
yamuna
gullu
bharne
sage
hazaar
minds
juice
8f
samjhana
staying
mary
empowerment
vivek
germany
milay
fa
chahate
empire
receiving
chaho
topper
angrezi
donde
devil
abusive
gini
fayeda
hisse
jhoomar
african
krain
abdullah
joote
🇪
legs
chahiya
ehsas
halloween
syed
eligible
juth
hill
🤒
videsh
andhi
gorakhpur
zubaan
daale
noon
jiyo
mock
mahmood
relatable
sons
cutest
phale
bedroom
rocks
mughals
invited
khun
gau
charity
initiative
managed
ummed
patwari
lafz
facility
badhao
ol
khauf
gaddari
tayyar
remembering
ooh
grab
streets
justified
kriye
impression
youll
beet
siya
flower
bose
📢
saha
urgent
usk
chahat
asian
vax
udhr
chats
annual
enemies
biscuit
alwa
madarsa
clarify
besharmi
legendary
hp
jimin
describe
🥂
lya
chotu
bagair
vaidya
tested
mx
jimmedari
suppose
pinned
imf
begins
rey
💨
giya
founder
glitch
ankho
agey
paisay
sees
todna
charging
api
acceptable
sd
buzz
gzel
munna
saad
compromise
jalane
phones
client
jism
aakr
paal
humaare
secondly
jhooti
caused
korean
bolun
fucked
summit
raam
50k
survival
principal
alia
1019
paresan
daalte
gan
vid
radha
bulana
ajata
triple
banani
adhura
proves
abused
dikhati
haider
dhong
fanbase
apology
payers
kamine
kea
harder
barom
5g
elimination
uc
pighal
goodnight
jet
himachal
jawani
waisi
shoq
ambulance
orang
1023
lgaya
advise
kamyab
touching
huu
banayega
bow
fayada
begin
nda
mem
aayush
ashok
rid
painful
saber
emperor
compete
swimming
ci
appeasement
chalao
banger
ignorance
meditation
tulsi
etni
zabardast
charan
waheguru
bubble
namaj
wasting
smoking
jaada
hoodie
hurting
🌞
petition
sometime
bitha
thus
haris
workout
intentionally
inactive
ancient
qb
senseless
manate
2002
tae
ordinary
kabul
khe
dekhoge
tarh
jano
hatane
indonesia
behalf
4f
shake
powers
tank
org
bewajah
samarthan
jude
shorts
lagbhag
shona
likhti
aagayi
abbey
russian
thii
raasta
paris
pubg
lathi
mdr
advocate
easthampton
flex
sunkar
nasal
rishi
ancestors
approved
jrur
kavya
khudh
izat
dalta
hike
devta
chord
kisise
banking
armed
sequence
offered
🦁
sunil
drinking
bhol
promos
dedi
kangna
kings
vulgar
gharwalo
karwaye
maidan
bkwas
chaudhary
neeti
belief
extended
combination
tauba
esp
blank
seeker
pana
stopping
kardena
halla
hojao
forgotten
proven
aos
bodies
rkhi
assistant
hitler
hunger
aditi
bk
indirect
badhega
idc
tejran
bangladeshi
items
throwing
trauma
hubby
baant
sabji
powder
marwa
fyi
jaadu
jigar
araam
twit
install
gandgi
tumhi
miracle
dalla
tactics
masterpiece
leaf
bhejta
ravan
gao
jale
mangna
kholne
2f
magical
creator
vishnu
adopt
scenario
lah
dixit
whos
jd
rant
ramayan
sakate
humme
document
aid
hates
fal
stable
wasted
heh
surgical
bhavishya
initiation
bhasin
pocha
lar
partnership
musibat
pahucha
hamary
det
tries
tat
pakar
pichhle
bethi
fl
filhaal
shivangi
studying
samjhenge
believes
zehar
indias
flowers
shade
dulhan
ghatna
sialkot
adhikari
achchha
hyper
bhulna
jaon
ethics
ici
kapda
lagatar
underrated
theater
chugli
karengi
exciting
dhoom
honour
flip
namaskar
margin
remote
leo
served
qualities
donon
utter
aw
intentions
choices
salian
attacking
reduced
daikh
immature
roshni
exists
gher
mtt
6000
mcd
jaisay
zahir
protocol
3k
theatres
inhg
1020
gumrah
parte
channi
hwa
panda
ghadi
pehne
unlimited
uthi
demean
paneer
😸
paul
duo
sunao
atal
briefcase
leftist
arabia
lyf
phod
screens
releasing
drafts
signed
sais
besides
phas
jhoota
booked
mote
abroad
saktey
toll
paati
hati
punish
included
wk
coward
ole
4g
performing
rasool
tabah
sakal
maangne
heading
motion
yk
iran
shreyas
bb14
sharminda
cn
spare
scope
bapuji
replacement
karn
jaogi
aachi
200k
prayog
hasna
chaahiye
manner
encourage
saali
pie
attacked
abd
attain
pehan
mujha
viva
🍁
mou
appear
reforms
pp
kanha
baa
county
potty
tasty
bhole
adding
commercial
sunega
wood
khamoshi
siblings
kalyan
sawant
clinic
mixed
seth
bahoot
waqai
🏏
wazir
za
bhaai
offense
sita
brands
puts
wars
killers
sets
links
6f
kambal
phli
gareebo
chanting
replying
😨
smjhe
bee
easier
tattoo
lonely
👩
gore
🍫
padma
bbc
regional
khasa
mba
trains
kiyaa
surf
symptoms
grown
tayo
joint
kurta
thesis
waisay
2rs
follows
copyright
1018
goi
ahi
hiding
soldier
kei
embarrassing
krtay
momos
hoor
label
pehchaan
taiyaar
jubin
faayda
mita
duck
jarurt
phela
peh
council
jrurt
aaunga
btane
00pm
designer
samosa
kse
ais
taj
bunny
singha
bagh
naagin
bun
sarcastic
raabta
disappoint
figures
gran
chode
sole
tal
hamaray
writes
sgh
tower
doosron
ene
✈
seven
kalank
culprits
square
pradhanmantri
laana
blackmail
inning
psycho
atma
bonding
taylor
roles
dio
carrier
batado
behaving
federal
hs
bheji
5f
zayda
ears
heads
whereas
jayengi
bund
alexa
rbi
sunane
guzara
aagyi
pfizer
chati
rashan
khilaya
raising
blog
hamaare
snover
intense
ts
sitara
insulting
jina
youve
ayo
mazza
ankhe
kicked
chips
diwas
1024
ahmedabad
unlogo
seedhi
midnight
janu
shadow
itihaas
girne
3f
bojh
bangla
praising
traditional
270
tagging
paunga
nee
mud
purush
sayed
gentleman
naukar
duba
radh
literature
princess
hataya
entered
slip
pap
creativity
sary
hlo
agreement
hahahahahaha
itana
kiran
nal
meyer
tayari
hungry
abhijeet
apane
shape
kisaano
bhaiii
aura
kast
beats
khani
aarohi
peena
lpg
abhinandan
dom
recruitment
1027
bachaye
reputation
jaanne
swamy
9f
tumhaare
taak
karoo
vaisa
pays
historical
hungama
tika
launched
karli
voc
priorities
sharukh
🍻
bound
maf
suvidha
shaming
alarm
finalist
shaant
tao
jud
wesa
honeymoon
verification
threats
statistics
boric
kamina
define
🐷
mela
helpless
expectation
chandni
hasti
harkatein
ruka
1014
chli
regime
attended
winters
spell
hmlog
rita
hera
poison
huwi
sunrise
qasam
30000
existing
samjhega
badtameez
vocal
instant
sv
gundo
miles
kohi
ilzaam
bachcha
layi
goons
taarif
qabil
dant
cultural
fi
crop
fruit
bachne
trans
pith
riya
revolution
deil
illiterate
roke
dosre
1021
goo
1f
2008
kudos
behno
transaction
ladayi
entertainer
healthcare
bewakuf
chodne
mansoor
ghalib
raza
kkr
shakhs
qatal
1500
establishment
breaks
krva
generations
losers
inter
rabba
bnne
bhu
khayi
21st
lago
batt
focused
aaegi
chauhan
nervous
aay
specifically
hosting
1012
sagar
initial
degrade
katega
coup
wanting
samna
arrogance
kehtay
aasmaan
hundreds
citizenship
ws
chris
celebrated
tongue
farming
sambhalo
unbelievable
rivalry
bones
peeta
rural
gambhir
kimat
denied
jaen
screaming
laao
jungkook
aarakshan
kedarnath
wen
karney
painting
iman
bnna
statue
affair
incidents
tool
shouldnt
paayega
trader
bhatak
operate
arts
chatroom
hor
pado
dande
critics
upgrade
williamson
dw
joking
glory
peete
almighty
disney
bando
baithne
prati
niyam
shouting
solutions
tusi
alien
jwab
tanha
fearless
7f
manoj
brahmins
badlega
🌈
audacity
examples
navy
tracks
huve
boot
nowhere
semana
randomly
rishtey
credibility
excuses
johnson
oy
begum
pehn
elon
fired
cng
faster
horse
reunion
keemat
tode
namah
bechna
gallery
forest
rahim
choor
creation
tet
unite
piyar
murti
holds
reward
baksh
mughe
serving
aby
zaya
350
satisfied
parent
nine
raina
structure
knee
jashn
ttp
ainda
refused
clarification
executive
basta
teachings
eg
tourism
waps
goosebumps
wag
adore
bullying
quaid
kharidne
oscar
1025
providing
lng
layout
remaining
teek
ecosystem
beating
kahen
anurag
chodna
wase
kingdom
vis
banner
akkal
seeking
institutions
elder
adhar
divert
banerjee
launda
kaale
regularly
reactions
gujar
harassment
onto
performances
😙
sheher
soooo
miley
kerti
mukesh
experiment
karrahe
mohan
irrelevant
ein
zimmedari
letters
jhola
howe
firm
fundamental
yash
minus
agra
nhai
peter
setup
admire
wey
firki
possibly
aazadi
edition
jy
ginti
chelsea
confusing
pragya
nao
nange
rhay
tags
dawai
rahaa
anay
aankhen
boxing
maggi
yrf
hms
novel
wud
complaining
kamm
iba
gurgaon
shaitan
batti
happily
jen
lakhon
mahoday
dhone
vdo
parhai
discord
1013
tradition
jabtak
gram
yhan
sera
leli
fasa
cafe
vadra
irfan
1011
device
michael
loota
rk
paayi
collapse
smjhte
protests
saadi
naik
khwaab
zid
bahas
jabab
revealed
plenty
🌳
drivers
bg
appearance
🌶
sorted
outstanding
consistent
randhawa
puppet
mainly
rakhni
mahaul
gens
hathon
talash
spy
nas
3oc
🍀
agriculture
moo
hokr
jase
brains
naturally
pseudo
suspense
asani
padhke
kabza
maarta
suits
tyagi
999
ugh
egg
shastri
becha
trio
mannat
20k
samny
bolde
assets
looser
mehta
jamane
rudra
ru
chunaav
chaheye
achievements
privilege
alice
claro
kahoge
island
mithai
pieces
sponsor
listened
angrez
serials
holder
continued
berozgar
algn
trophies
spoken
successfully
sacred
platforms
conclusion
attract
waapis
markets
copied
audit
ajib
barely
sandeep
gari
cruel
shikar
doonga
rafale
predict
shaks
sg
hoya
yara
persona
khake
manenge
khafa
bhok
contribute
waqat
punished
tarakki
claimed
luxury
saa
bitter
stomach
dosri
rkhte
nuclear
hahahahah
slave
irrespective
dusare
cop
hoja
niti
fielding
daro
hw
nan
bolty
pitches
1009
nights
akash
ear
believed
vikrant
criteria
injection
bajao
gujarati
hola
tease
alternative
andhera
bazaar
bajane
hena
vamp
tuze
khayega
4k
meal
dangal
amigo
nagin
arrived
mauj
tabi
bam
puchha
spineless
wrestling
tmne
sochu
delusional
saki
nota
unexpected
confess
scientists
buses
aayege
retail
ea
malam
utho
searching
ashes
combo
boundaries
nusrat
perception
btata
governments
disappointment
fridge
pointing
8oc
covered
hidayat
firing
ala
fighters
accounting
nama
progressive
jhagde
samjhoge
bulaye
font
kamana
jhuk
schemes
dhaka
stroke
muj
ordered
consumer
filed
explained
tuta
kaisay
dick
khoj
rishton
sochke
1008
badhne
homes
msd
hacked
bho
lessons
ques
locked
tagged
york
7oc
⬇
businesses
unnecessarily
usman
majburi
lifestyle
🐒
🌿
ganesh
☠
poem
thore
asr
presentation
🔴
tyar
👿
1026
batsmen
spokesperson
dig
mtlab
bichari
missile
boat
hep
audiences
lob
karata
jaaoge
introduce
controversial
bravo
jabs
infinity
refuse
murderer
escape
aug
coat
mortal
rjd
advanced
saeed
180
haridwar
devotees
0f
aashiqui
mehfil
sed
thhi
mps
19th
comer
photoshoot
taxi
lite
offering
pdi
lagaa
disrespectful
bhout
yuhi
rahege
mahabharat
sung
ngl
pahla
jaam
stranger
karthe
sum
shehar
krnay
encounter
sacche
nako
sites
ages
badalta
ocean
dabangg
upbringing
grant
nakhre
nibha
puppy
visiting
template
ansari
bcha
disappointing
universal
mayawati
uneducated
lawyers
vidhayak
hinsa
hawai
suraksha
streak
alvida
saba
merese
burst
rupye
weakness
ziddi
kamre
verse
bismillah
ignorant
🐐
sikhata
bhid
gesture
zikr
noo
otp
robot
pharma
weapons
bahaut
chaliye
ninja
investing
rauf
karon
hala
heres
khayenge
barh
00am
cleaning
accent
🌙
afghani
rituals
kgf
behna
symbol
agarwal
poochna
imandar
milege
identify
nursing
num
2oc
tie
hukumat
ush
daniel
juta
sane
mercy
inpe
🔱
medals
blow
diplomatic
ost
bhojpuri
samvidhan
kardete
offended
swiggy
🇫
lat
beast
profits
cu
claiming
daat
lada
maggie
bonne
regardless
campus
patak
proudly
mitra
koh
ine
stopper
amethi
dhoke
bob
haqeeqat
kharida
moisture
observe
naha
gg
deer
kodi
evicted
blowing
gharo
inaugurate
khaak
rakhega
uttrakhand
championship
sabzi
destruction
larai
chela
perfume
elawa
extent
kisses
wahe
banday
bewkuf
neecha
sweater
andhere
sathi
nem
sahiba
sand
stays
delta
toxicity
washing
split
kion
liyo
pkka
engineers
wire
diyo
manners
waseem
chaos
geet
capture
tiny
seniors
directed
author
systems
row
constable
ess
sudhir
authorities
helmet
1oc
deus
odis
reserve
karaye
tabh
explaining
joshi
thrown
aishwarya
billions
presents
protected
ched
koch
panel
forcing
loosing
kabja
bone
pav
mirch
chashma
thana
teni
jp
aime
1007
chada
kanhaiya
advertising
bakwass
surakshit
underestimate
krwana
trillion
owners
chhap
mohit
aashiq
passenger
singham
ibrahim
aari
andaz
tamam
itti
lagy
jruri
vegetarian
mra
💼
❗
teg
accepting
spoilers
🙉
4m
bhajpa
ub
kamran
influencer
americans
ijazat
teeth
basti
monkey
hated
export
pakhi
pegasus
jabardast
nath
favourites
sore
jatey
gulab
badhte
sens
loading
brush
rhegi
💣
wrapped
tub
gotten
forum
candle
accurate
dhanush
ore
ruby
jg
kutch
tyari
usky
heist
baazi
sukun
bahubali
ghata
elements
parhna
lemme
dept
confirmation
published
arsenal
pulling
moe
satisfaction
nadu
dengi
investor
bhaari
samje
weapon
jhelna
danish
talak
applied
headlines
mulayam
quarantine
indies
junaid
☝
pappa
buenos
repair
goodbye
individuals
telangana
suck
kahein
andaaz
images
rarely
partners
2009
railways
aplog
7000
ibadat
isilye
pite
bz
kaira
weren
reliance
tala
duga
crossing
hogaa
mza
ug
maanga
ashish
sikhne
ahhh
budhi
peg
abhijit
magr
amiga
chahunga
discussed
galaxy
kaur
ls
kol
payer
vrai
miyan
ishara
moto
commerce
rupya
bilateral
yi
ohhhh
maangi
125
unlucky
condom
zia
etne
🎯
pange
birds
traders
faraq
birla
hotha
arun
lobby
reveals
tuu
mountain
🍂
sikhism
kahunga
narak
jayanti
closing
worries
zaida
compensation
bonds
bhule
aameen
faisal
universities
recipe
explore
library
stokes
tumhra
blocking
fruits
aaenge
aprs
4oc
safal
ekbar
tariq
qanoon
competitive
6oc
deshbhakti
smartphone
samajhdar
allowing
sf
baan
mouka
ses
vinod
shuruaat
monde
jaal
fancy
isase
wana
consequences
pheri
acknowledge
oe
headline
afsoos
chahy
rokna
chalenge
sarfaraz
haathon
historia
purple
intrest
badhi
subjects
chaly
shib
reserved
tale
import
phenk
gareebi
signs
pavitra
sayo
gh
haad
khona
charger
tg
nxt
pulwama
udas
pritam
grew
issey
credits
mea
mazaq
smiles
jadu
destroying
yarrr
tumpe
kamse
secrets
shiba
khatir
ustad
envie
tall
phek
nobel
anjum
ngo
sangat
useful
conversations
youtubers
pehley
latka
remix
jurm
referring
thailand
shops
majboot
fascist
gatiya
uthne
sanu
toofan
tumhen
chasma
naira
tier
andy
jispe
hmse
jour
dana
jaankari
mufti
avoir
foolish
courtesy
individually
differences
jra
glasses
nek
fastest
sidhi
haara
stayed
pawar
layenge
sangh
moqa
immediate
christianity
bujh
60000
baitho
lamha
authentic
aaka
brutal
vedas
hooo
ken
interfere
ghutne
buddhe
yojana
mach
activist
pina
inho
kamini
culprit
shortage
amaal
bhopal
impressed
laughed
111
nfl
chef
vms
8000
reminded
baaqi
gaal
kasoor
barsaat
japanese
dust
pawan
500k
triangle
soja
hav
opponent
sohail
karwata
tape
tussi
cameras
mauke
thane
spinners
tte
aadami
tyre
1400
slept
pae
rift
bss
darbar
madrid
ultimately
peche
jar
worlds
musk
chore
9oc
👨
dikhani
badalna
imandari
lip
nisar
faiz
allu
ekk
verna
bum
rista
laxmi
sigh
wolf
approve
hub
saar
jazbaat
asset
nail
dedicate
organisation
established
startup
capitalism
rojgaar
ont
languages
tumhri
climax
kadwa
yaadon
kidnap
undisputed
jerry
ease
itr
bile
dreaming
tooo
poet
invested
proofs
valuable
khushiya
dekhana
recorded
prevent
withdraw
sochi
clue
resume
aisey
chune
stops
doubts
pasta
reform
swal
dilane
shaid
anusar
arya
bronze
laaya
intent
taxpayers
seene
therefore
fehmi
infection
piyo
promotions
breakdown
honourable
fiction
wil
ludo
plzz
💉
sehwag
mocking
mira
churan
sampark
helpful
wrap
majbur
kang
omicron
suniye
preesha
sami
❄
payar
clients
brighter
samaaj
fenk
bataa
kishore
moreover
khna
hie
uthe
circus
sarpanch
pulled
putra
rumours
shardul
utaar
aaiye
dependent
afzal
dies
swad
charche
banoge
chije
mujhpe
indo
lallu
storm
dekhegi
arguing
hazaron
prta
deals
pahchan
observation
♾
chandra
publish
portray
dt
amongst
jon
kayak
chile
sudhrenge
extremist
dz
tham
faisle
mujra
rockstar
experiences
diary
linda
motivational
tripathi
boobs
ours
bawajood
steal
complicated
gaddi
meny
isey
pearl
steel
praised
dus
samaz
tery
135
bullish
chodenge
vishesh
yaaa
rahungi
refer
wsh
kamra
udta
saap
mohd
enquiry
travelling
bilal
resistance
kunal
bark
bhaw
photoshop
khod
protein
dilon
behes
duties
salt
kendra
tais
positions
segment
vande
soti
cleared
seekhna
length
tragedy
aau
collage
temps
disciples
classy
motive
tumahre
excel
loads
pole
yaadein
tention
unvaccinated
fry
devotee
chorr
crucial
pun
bni
gut
understands
aunties
anchors
dropping
dosra
uthata
vehicles
began
rishtedar
lamhe
nidhi
coaches
monu
touched
kapdo
satsang
sakshi
command
expressway
kana
biz
jiah
nali
sikhane
matlabi
sikhate
samjo
dabba
questioned
zarori
aaaa
pf
🗣
carefully
nikalenge
zimmedar
rashami
shankar
balo
unconditional
piyush
nye
kindness
badhta
rage
ncp
900
1006
glow
sidelining
bunk
eske
ei
vivo
mj
likhai
wetness
charlie
mitron
bado
inquiry
industries
gair
dekhein
essential
proving
females
behosh
samrat
rajesh
naali
youngsters
dahej
explains
smriti
darkness
custom
picking
inna
darti
shara
carried
152
challenges
kagaz
abse
jews
photographer
☀
videshi
picks
quarter
scooty
maata
gains
pallu
cats
produced
dutt
possibility
boundary
ann
mulakat
agayi
fox
srh
desire
ganpati
chaddha
barbadi
banaras
crew
beaten
dijye
platinum
maarke
jang
jhoote
dragging
paisy
convinced
fulfill
283
sharp
oi
taali
gros
awwww
taisi
likhu
kru
haaan
dupatta
investigate
exposing
khudse
avatar
validation
ladta
jaaega
lowest
khilao
degrees
arrive
rocking
lgana
sessions
🤚
trusted
qasim
krwaya
choke
📍
nang
mingle
ajati
dikhenge
hoto
bua
technically
hosla
jhalak
lgne
constituency
karlete
baithke
housemates
rahata
fad
rehty
kahun
nain
ptv
chhoda
ln
90000
jaanu
doll
laikin
pujari
langar
ruke
goverment
144
spotted
rounder
lynch
civilian
gossip
aasani
guitar
narayan
diyan
😧
aqu
tumhain
naked
subhe
guidelines
hardworking
chant
sapa
compulsory
jus
controlling
wahaan
runner
prapt
rishabh
sadness
likin
ghumta
def
stated
pados
evident
jaap
peer
arshad
provoke
athletes
incomplete
circuit
thick
developing
alfaz
meta
bothered
aawaj
netaji
kabhie
dora
brainwashed
haasil
unfortunate
academic
cb
burden
1005
tokyo
lazmi
embassy
umid
mand
tegh
blamed
historic
roadies
losses
sahil
flash
fasal
maintenance
buena
badtameezi
💸
sangharsh
khraab
karsakte
areh
commit
nishan
ghusne
aba
pronto
samjhdar
zaror
lied
berozgaar
productive
unemployed
smooth
agai
khudi
tumhaari
🐖
adityanath
barey
offence
breathe
slightly
gadkari
scientific
shaanti
manaya
bags
vikram
hanging
sino
dewpoint
dealing
🇩
sahe
zalim
lipstick
khilana
pratap
younis
cheated
nasib
khalid
umm
barking
muja
communities
hamza
hatana
todi
vfx
swings
lankan
bhajji
csc
chhut
qayamat
rightly
requested
litre
dramas
zakhm
dynasty
lath
jalwa
lollipop
atak
baithna
parallel
mp3
ayee
eagerly
protecting
stole
anjali
attendance
generate
nadi
taa
puchho
ved
vichaar
khalifa
sochega
khalsa
cmere
mfs
karraha
analyst
katwa
nora
basa
hao
baghair
smjho
bajate
sofa
gp
singers
incompetent
khanna
resident
counselling
ut
dijiyega
doses
tolerance
akram
fokat
commissioner
diyaa
assist
scripture
fab
s2
1003
bataunga
colleagues
defeated
jhootha
bars
1028
spine
rekha
bait
agora
sinha
ayaa
mutton
jaoo
passes
fangirls
jaraha
bhaar
kyunke
ink
attractive
candy
rozgar
plain
milane
phal
pig
measures
anjaan
paray
thei
parwah
fu
100cr
patches
seni
interests
dikhayega
fog
hasnt
🎧
adhuri
fds
azaad
qareeb
aakash
woi
gora
attraction
agents
immune
pu
gosh
racha
sudharne
heights
wt
speeches
slayer
certified
mutra
european
sadko
pehale
shb
banay
besties
rainbow
tujhpe
aajati
fourth
unhen
humsafar
pahan
exception
bulata
kota
zaheer
chahega
deja
maalum
tumharay
changer
gardan
informed
zain
kartha
consent
privatisation
handed
introduced
994
karz
nazr
privatization
beautifully
periods
chhupa
footpath
representation
educate
bevkoof
dekhkr
quetta
moron
adarsh
thr
dhruv
keede
provides
principles
ie
barca
1004
falls
shave
bhagvan
1001
kiri
lagani
destination
motor
probe
qualification
aisha
ih
dhoondh
irctc
raita
srilanka
deri
christ
cas
insensitive
sabb
nagrik
depth
dimak
hah
nooo
baju
badme
anjir
tra
strategies
ahan
shayar
deko
aagar
discipline
keeper
triggered
snaps
trained
boris
dinn
metal
roots
palestine
nazron
ajate
aircraft
reporters
verdict
dramatic
ajit
sack
adalat
satisfy
naraj
severe
aaur
sahare
jabhi
nhng
padd
luta
changa
kut
wished
conscious
native
vivah
pagli
horny
drops
sabut
qabool
rahai
brahma
prosperity
karuga
kabka
pcr
ilaz
lagakar
sade
kaata
chahenge
jure
borders
believing
anh
chay
inauguration
honorable
14th
nila
masses
literal
firstly
khichdi
maangte
hdfc
fails
yahn
bachelor
decode
👅
dharmik
💌
ispar
luna
btate
popcorn
ante
bhgwan
dea
shivin
tute
gaur
jitana
batai
jalaya
hamri
cam
bharte
athar
prashant
trolled
decoder
samadhan
heal
mami
shaddi
krishi
nasir
multan
som
landing
khyaal
aqui
oar
lagraha
rti
hamra
peechay
kargil
taane
peacefully
gufa
keeda
itani
gr
addiction
ghor
consistency
saqib
lm
stating
initially
wrath
baha
maksad
aajayega
arunachal
airdrop
▪
998
tenure
👹
solved
sep
sajish
realistic
med
sindhi
hanji
balke
mandiro
throat
byle
lgane
isbar
nishaan
indore
dubey
wasta
kaatne
visionary
bandy
permanently
professionals
jhand
arora
subscribers
signature
hamid
haatho
finds
khala
shru
selfless
harmony
deputy
postponed
umra
taqat
clock
mazboot
listed
manch
cheeks
deadly
larke
btau
teeka
membership
sweetest
gandhiji
loh
iz
requesting
batter
sweets
ras
someday
entering
piti
momin
toote
wja
ntr
kamate
vulnerable
sikhana
roko
dulha
loans
daughters
rehman
dustbin
daadi
abp
fare
shattered
lakshmi
aan
businessman
remarks
designed
dikhegi
scoring
khole
chorna
refresh
sparkles
ramesh
scooter
naii
sins
maid
plants
rough
kosish
pheli
potik
julm
padhega
radical
gathering
hiii
arena
mamu
meetings
🇲
kandhe
bulane
dhakkan
guyz
kholna
properties
tablet
daag
1117
samjhti
german
smog
territory
reigning
foran
parivartan
duaa
harbhajan
itnaa
madhya
alex
1029
kudi
carbon
nationalism
mk
fallen
phrase
posters
cuteness
impressive
reaching
ile
cheek
mandate
guns
admitted
chipak
toolkit
1990
directors
meisha
chahty
appropriate
succeed
iti
160
nurse
entrance
aabhi
residents
openers
misuse
pahuncha
odds
arti
sanskaar
overconfident
monster
toy
fifty
tri
bachna
jaygi
bhaee
owned
liverpool
ohk
automatic
dediya
rag
assumptions
zubair
buland
ladh
sentiment
windows
alleged
jaab
bhuvi
firecrackers
meena
charts
1992
kahaani
clowns
phi
george
louis
jaiga
awake
lottery
fils
endless
origin
accountability
appointed
nickname
apn
vn
knife
2004
oka
sunder
motivated
snakes
1002
supportive
demanding
prison
javab
salim
decrease
natija
gl
365
paan
padhaya
promoted
yuvraj
socks
spring
bug
goodness
scq_2
practices
cal
martyrdom
agye
dere
watt
awful
scq_1
ds
laid
mangal
protective
bec
checker
tendulkar
unhein
osama
rahman
gates
waapas
ag
wx
b4
1999
selectors
hojayegi
waar
aega
chosen
ck
prior
chini
tournaments
withdrawal
dhol
kiddo
anmol
nahane
shelter
kbc
kisanon
nb
misleading
blockchain
nich
valley
lap
cheeni
hahahha
attach
xyz
katna
malai
divided
wherever
partly
usd
mor
kau
bachhi
appears
▶
📌
axar
rrc
yanha
samajhti
dalke
crown
pota
delayed
ladi
addition
sheer
jyadatar
govts
tractor
zoo
walked
estate
manzoor
ehsan
nailed
recognize
kuj
pairo
aad
kitny
hiring
ghode
ankhein
priv
redmi
adults
extraordinary
kajal
esha
tumhy
itte
challan
practically
intro
kiara
bhagwat
nadda
thier
integrity
forcefully
debates
pants
baher
kalyug
caps
sojao
vro
drinks
duplicate
vaali
nk
kahate
shabash
rj
adopted
drone
kahti
functions
fabulous
piss
superiority
samnay
superhit
khanay
dhani
2003
andheri
imaginary
grammar
saathi
variety
jazz
logoko
padhti
behter
surprising
thriller
jalebi
katai
girta
noble
mandal
mommy
viewer
1200
ahsan
conveniently
dragon
thepla
badho
bhyi
mimi
muna
pale
kul
kijye
zeeshan
healing
pankaj
protesting
lewis
banaoge
atheist
insaaniyat
rajkumar
kajol
steve
chodd
ulte
anatomy
prithviraj
pohoch
aspirants
distancing
meaningful
threatening
deewar
controlled
paksh
diseases
basketball
representative
gratitude
sunana
matha
tution
muskura
addressing
fida
paso
importantly
gear
frndship
halke
vaala
marg
charged
adhikaar
oic
klo
description
males
yaani
blush
batayi
badhti
fitrat
carrying
ncr
amin
bigada
nazro
anderson
expire
sample
cunning
moun
nirdosh
mrzi
bolein
ladkio
bataun
bistar
bmc
irritated
complaints
antonio
greetings
jones
scindia
sincere
guaranteed
demise
🍌
psg
tuned
jhuta
aastha
ajaz
lately
parth
churaya
bora
mainstream
sbne
kahiye
backed
constitutional
versa
courses
counts
venom
bardast
requires
thx
dekte
chupane
despu
financially
shd
hongy
assumption
sob
kasar
rehke
anandi
ui
jitane
kron
mainy
robert
ratan
anne
ansu
recognition
dha
mer
🐶
unreal
dl
circles
eso
rahain
galli
behad
🇹
kerni
accountable
boo
jokers
catfish
hathi
no1
abs
casual
miserable
ing
coal
thae
kumble
lauta
raining
aspect
tohh
gully
nominations
suffered
choosing
madina
verma
problm
pause
usske
tricks
recall
humhe
particularly
hsi
hashtags
relaxation
myth
chuti
tackle
sunlo
kijiyega
personnel
bhalai
larkiyon
shruti
khawab
distribution
maryada
labh
fleet
sept
bhuj
bride
imad
capt
includes
crorepati
fille
hop
johnny
institution
chhup
seemed
farhan
momento
builder
zindegi
☑
disco
sarr
ishaan
jasmy
krogi
wan
fo
retention
failures
bhagna
tejas
adds
oppo
thikane
huy
scores
condolences
gross
picha
cure
cd
lrki
gawah
farigh
jugaad
zidd
shaayad
kada
tilak
mona
assuming
weed
153
caller
paungi
hallo
lati
sip
subscribed
bachchon
distract
forms
respects
ilaaz
engaged
require
rama
overconfidence
ghoshit
hook
dishes
hmary
significant
altaf
ldke
reservations
aged
pakra
civilians
fro
insha
dominate
aziz
chele
mercedes
parmatma
wh
manaye
😦
regard
teasing
jim
larkiyan
trek
formality
donkey
nsa
returned
vakt
youu
kuta
bant
assistance
bazi
bodyguard
meets
engage
activate
daring
bholi
faz
eco
grass
sabd
sixes
avail
dusman
bhiya
seller
auqat
heera
gayaa
messed
aesthetic
maurya
storage
muu
10m
quantity
issiliye
chachu
🔫
narratives
pau
daina
hip
palace
bajaj
chess
haldi
aaungi
featuring
mot
agge
villages
manusmriti
deka
wesay
dg
causing
biswas
juban
shell
vibhag
galtiya
muda
dairy
deepawali
strikes
dint
taare
fleets
nargis
naag
chanel
areyy
ruining
chakra
eight
injuries
khasi
usase
zainab
hajar
splendid
breed
inr
politically
hunar
mehndi
janaab
toba
rehkar
🕊
jhuti
transparent
jhuka
logi
stake
filmy
karri
997
ratings
cv
koti
badd
nom
tender
303
lagey
twin
aadi
katam
arif
sacrificed
apologies
bharna
zaban
doshi
3d
covering
dalenge
gaate
ayga
karwayi
sunshine
beliefs
improved
belated
theories
tyohar
wkt
dekhane
spoon
placed
dang
rhoge
mohalla
laddu
yahe
storyline
rukne
servant
kiyo
matching
coke
geography
ksm
cont
infinite
dh
fakir
mujhme
junoon
0w
pehni
rum
lays
costs
deva
hangover
pickup
cameraman
huey
slide
desk
hna
bowled
bigaad
cough
premi
predictions
kamya
zoya
innovation
whitewash
restore
estn
approx
maregi
handling
mut
heritage
alas
hyping
devdas
khng
elect
stunning
immortal
mehenga
traitor
hawas
chaa
chadar
instructions
novo
102
bulls
digit
cheque
meethi
neutrals
swaad
maharaja
und
nakal
tumhary
sustain
traveling
flaws
harvard
fest
guroor
northern
matar
manifest
kesay
1h
nico
justifying
weve
aaap
marunga
tark
chhattisgarh
ghani
ghanaian
gehlot
gurudev
bachta
manufacturing
pinky
chodkar
rajat
neighbour
cable
claps
jabbed
shahar
adv
cms
tarikh
leaked
outta
wit
dinon
baadme
uthke
jams
adnan
deshmukh
zahar
mainay
parhi
nagpur
infra
yei
potter
gems
woww
thande
banae
driven
amen
shoe
asmaan
khile
karib
civilization
ful
dhek
noman
default
manipulation
maula
suhana
characteristics
shakl
sponsored
meow
failing
loktantra
shaw
gu
aayga
ashraf
dekr
ashiq
freely
educational
files
26th
yaarr
jaja
fauji
tejasvi
kanya
faisu
int
andrew
bump
combined
immense
baseless
oneplus
wheel
9000
roman
settled
baloch
rafi
yug
stalking
jaakr
peechhe
ntv
geela
teray
quoted
smjhta
🤏
sly
hve
25th
sazish
bhagte
chahati
arabic
mnh
dekhty
funded
causes
sociology
rup
sho
duur
libres
pakode
shoro
sauce
forehead
slots
ande
inconvenience
judicial
harass
jasa
occupied
treating
dooba
leh
critic
fe
girane
harshal
💟
curiosity
dash
mayne
additional
onwards
pri
bhagne
charming
drain
oper
brutally
ramiz
2no
hunt
asman
anurodh
ananya
stealing
jaey
aalu
vaya
palti
lon
cola
shehnaaz
govind
ranaut
ushe
models
itc
participating
🐘
tiya
chauth
chillane
sharia
pahad
anirudh
🌎
producers
specialist
sajna
lungs
ltd
replay
dehradun
swarg
bhaskar
tiranga
hud
matric
heartbreak
rakhein
freebies
dhar
tora
dhanya
behtareen
funeral
islamophobia
jhutha
stat
kitani
smjhna
nightmare
aarahe
20th
advisor
📺
absence
demo
tagda
rangeen
gina
td
mulaqat
savings
tuition
dawat
innovative
associated
teaches
pindi
f1
rapper
kharap
waqf
kich
contra
caf
chakka
manega
legally
sanity
conflict
lectures
external
matra
pandits
offices
bid
palan
calculation
phenomenal
rakhen
hogae
scholar
icu
richest
🍾
calender
pope
patriotism
jooth
📸
khor
wallpaper
voices
noted
entirely
ahaan
bologi
bankers
dayan
soyi
bunty
custody
graduating
firoz
alfaaz
resignation
laake
sadhana
examination
naahi
ppr
kapre
hea
badhana
prayas
creepy
laden
patrakarita
daud
paayenge
kills
gori
beau
samil
blunder
picnic
ongoing
jinx
hadi
odio
girte
editors
ngi
karlena
aha
hove
irani
gurjar
groom
hashmi
speechless
vansh
khich
ladkon
santi
dhul
sharan
mild
fut
aaina
rider
assassination
sachhi
arc
eachother
pena
ghuse
plotting
nashta
uskay
stolen
threads
bolate
kakkar
biopic
justin
rahin
feroz
koot
deeds
merch
karab
holders
laughter
lan
rkhne
badhkar
jhoothi
revive
fictional
sarah
bayaan
gyaani
🌍
nationals
bhang
curry
denial
qua
mangni
muted
lou
royi
skate
naka
30k
sevak
jaaun
kahaa
oyo
betiyon
dhillon
studied
paak
collaboration
sauda
meera
screw
streaks
minta
tharoor
nano
backward
grades
debit
grandfather
yon
cg
xiaomi
pot
deadline
amrita
ldka
bja
panti
mans
polish
shagun
karar
concerns
pipe
preparing
alok
seal
serf
kavita
hotaa
smajh
boa
bobby
chhat
linked
saazish
chii
instantly
strategic
dooj
respectful
jumping
opens
haari
paega
scream
delusion
pdf
chahar
australian
tahir
sail
samita
kannada
closet
vol
nm
rescue
mec
khushiyon
tomato
andhra
doori
poochta
intzar
prithvi
sooraj
equation
freeze
congratulate
slogans
waisy
kasa
gamer
💅
shair
khare
kissing
banya
jhatka
correctly
bhadka
barrister
chillate
dilip
rishwat
atrocities
nitin
ooper
surgeon
fond
desperately
pehchana
tools
venue
graph
units
chatting
bulati
charo
moderate
gulu
bhindi
recommended
nizam
congratulation
ataa
sindhu
udaya
femme
countdown
hurry
gusa
roh
kitana
grounds
jaisy
jhadu
req
replaced
intzaar
parody
consistently
clueless
waited
papi
heartbreaking
200m
daalta
tamanna
connections
theyll
pregnancy
srinagar
moksha
sadar
milan
repeating
rakkha
pinki
tapak
focusing
🏠
usdin
mohabat
starring
nails
loses
dave
hints
kaheen
tamiz
proclaimed
muskan
soulmate
pait
nadeem
circumstances
kamyabi
deliberately
banege
cells
handwriting
breathing
kardeta
preference
womens
sma
allows
dealer
threw
machi
nicely
ld
dresses
aagay
prakar
salmon
batman
syria
husn
balle
khany
soup
singles
bawa
shai
jos
tun
inaugurated
wajood
lauda
kt
mentioning
tribal
babaji
bharosha
kenya
hasa
io
bechte
bhejti
pretending
filling
apt
feeding
royega
uthai
khilate
beside
dekhate
broad
enke
nikalega
comic
muqabla
tendncia
patli
backing
vince
dekhny
jawano
walks
continuing
sanskari
formal
uday
batne
yogya
shuruwat
shades
convey
tanhai
parvarish
bajana
munda
informacin
js
kas
onscreen
gav
uninstall
allotment
passengers
tracking
urs
kamala
suggested
locals
sharad
pakdi
darne
sadma
burnt
raas
bika
tandav
bhaiyaa
photography
patrol
bajah
masum
hifazat
abuses
speakers
kardu
isha
fazer
wkv
reception
extortion
anjaam
dalega
janeman
sunoo
dakh
ramdev
virgin
maddy
continuous
anupam
dynamic
prc
becharo
casting
sooner
pree
transformation
slam
gii
kpop
flood
nibhana
farewell
headed
👽
lara
gauri
riyasat
lightly
emerging
answered
achai
jad
uchit
aajadi
mri
chasing
qabar
twenty
viento
tayyari
illness
ahem
sticker
bahaar
radar
wet
raa
awarded
hojaega
wikipedia
dawn
badhegi
riot
chodte
shin
420
dekna
zafar
halki
mehboob
vimal
gnaydn
preach
tear
versatile
catching
establish
nyt
differently
festive
mms
jackson
1030
bandhan
tui
dhundo
seena
mlas
presin
lluvia
chalisa
aasu
polio
kufr
jamat
mukul
streams
raped
zayn
chunavi
roi
usake
avant
hissab
linkedin
enka
senses
radhey
conducted
cardio
demon
shat
unseen
paath
domain
convenient
vaat
tragic
jaano
📷
guarantees
duri
disgrace
marriages
lagayenge
jordan
larger
slavery
thaali
sarey
extremism
basics
aurr
stylish
blur
mtv
2025
glimpse
chalaye
fatwa
rkhta
reliable
internship
anubhav
saffron
kinds
ests
operator
wajeh
ina
bhram
aadesh
kheech
latak
stressed
attaining
vacations
ade
uffff
vacancies
usee
creatives
procedure
hakikat
madhuri
invisible
balak
bikul
ded
u19
nike
collections
taal
hired
patriotic
chila
kwa
organised
acquiring
tana
duffer
wong
albums
resort
2g
thumbnail
ucc
assured
humen
afghans
extremists
thankfully
petit
15k
rickshaw
berojgaar
dikat
khak
aasaan
sakhta
dikhaoge
layega
deewane
sasur
jaago
bliss
kaushik
mothers
khass
ib
heater
bukhar
occupancy
tootne
inu
chaalu
inta
mac
dominating
artificial
presented
pillow
riha
municipal
rico
sufficient
pointed
yaari
sunenge
janamdin
zaat
puchega
puchti
maroge
personalities
insulted
🌄
threatened
khattar
kasab
ishant
mansik
pleased
beja
wd
nanya
towel
aaty
sweetie
ue
smaj
panjab
museum
sehi
gathbandhan
quil
paragraph
favorites
budhe
dalits
milli
yum
amritsar
lacs
ghabra
200cr
auntie
detailed
object
needy
staring
🌅
cries
gea
milana
signing
chem
goddess
guzra
boltey
puro
bsc
mqm
itane
silently
shobha
bruh
mele
baht
kalicharan
shandar
repeatedly
downfall
alternate
mens
viswas
ithna
senti
anchal
khilane
concerts
starrer
gaav
daalke
taza
giant
apartment
🎤
calculus
kood
bilawal
sao
tasalli
monitor
islami
nut
cargo
karneka
amarinder
irritation
shart
rohingya
morgan
dye
colleague
sazza
lakhimpur
humre
tanya
unpredictable
majnu
maulvi
courier
slaves
tit
arakshan
stamp
ruki
⚽
jinho
pradarshan
jeetega
runway
melody
naari
996
shukria
chid
bhagaya
adventure
vhp
essence
tino
hyped
akka
misbah
bhaji
pml
murderers
tabahi
kell
jismein
kela
attending
tey
buddhist
sabudana
stretch
jak
tend
bhola
thomas
madrasa
hopeless
att
sunate
logics
🎓
ayub
exchanges
mel
hijab
newly
tng
dilwale
nostalgia
wings
gimana
sunayi
udane
mehengai
chop
implementation
kirdar
taqleef
addressed
bool
petty
talab
measure
gotra
fanta
maharastra
inspector
psu
dhundne
funda
tukda
spicy
qt
bikhar
⚫
empathy
magazine
tommy
db
pepsi
hairstyle
exposure
fits
tbi
haule
cherry
jhagra
liver
lekn
warned
🇭
scams
khwahish
array
calculate
rohan
suresh
opponents
103
parho
deux
nasl
ditch
dragged
taur
risky
coding
nap
sak
riyaz
kariyo
bestest
simran
bagga
btati
dalito
costly
infected
grudges
aaaj
subeh
gada
oxford
naveen
virtually
tons
isy
nagaland
tali
lease
intended
privileged
unbiased
annoyed
asleep
thanx
lota
craving
sthan
ashirwad
siwaye
delicious
acceptance
18th
parantu
pitai
kena
tareekh
ku6
aatey
⚠
chhin
khayaal
shampoo
merey
tourist
sweep
kyi
leker
soi
hongey
guyss
lau
frre
barat
knockout
regulations
bandariya
industrial
jamaat
apkay
outcome
matalb
takay
shaikh
strictly
2005
paratha
trail
apologise
kevin
karod
iu
nipat
2bhk
kasht
talents
shahi
ussne
maria
tooter
damaad
pb
mukti
rakhlo
kerke
milestone
devgan
obtaining
🎆
leela
familia
diversity
shashi
nhs
rak
7k
dalti
chipkali
chlti
qureshi
badli
villian
sbs
pore
bche
dour
chae
tujhme
apana
scan
smjhne
respective
btaa
loudspeaker
execution
sachhai
ladakh
witnessed
uf
budha
idiotic
afterall
sainik
humidity
perfection
jesay
bharatiya
kalakar
pil
kati
thug
kshatriya
ayen
badminton
tee
lagtha
reasoning
humey
khu
dowry
pappi
pens
saleem
jhoothe
alka
licence
invaders
madness
pete
tamilnadu
noone
defended
ayege
repeated
tipo
biscuits
attained
ikr
childish
volunteers
bej
mosam
ikke
hongay
abhay
swarth
yog
packed
ghumna
dhal
bj
sandhu
shivam
morons
algebra
doors
ghaziabad
allegation
xx
bhagya
🇿
rehny
chocolates
commander
humlogo
chee
tam
barkha
knees
wales
premiere
sleepy
tissue
leone
nacho
bl
bachhon
nishani
pooche
mati
varsh
frank
programs
barcelona
sakata
disturbing
13th
kye
katal
aspects
bajai
bor
uv0index
baatain
expenses
theyve
rato
grill
1031
tmse
mitro
suspension
chalati
mig
similarly
mutabik
alla
anonymous
indra
zombie
watches
joda
divas
teesra
chlte
organized
rub
hayat
sacrilege
aaplogo
diploma
inevitable
pogo
electronic
kirpa
merchant
dengue
filthy
tujhy
attempts
chorke
medicines
muscle
tshirt
cji
foam
ipc
chodu
possession
mehsus
autograph
britishers
khat
warn
outfits
fave
shuruat
pakdo
oc
ment
radheshyam
addicted
horahe
kamata
rulers
intolerance
poking
sequel
gs
naraaz
kholke
siddhu
jh
bw
ghuss
qubool
brigade
disabled
sooch
ic
gaano
faridabad
problematic
neighbours
baca
sacrifices
amrit
kinare
jidhar
pencil
dieu
soniya
badega
cups
aaryan
jsuis
jaw
villa
kyoun
contacts
fireworks
tinder
samose
viru
ops
generals
upyog
lafda
wp
yogdan
yaaro
naubat
pdegi
darj
handled
honors
sasa
returning
dheela
sachchai
btaiye
nok
purvaj
bhadak
mcq
lw
familiar
ussay
rozgaar
maanti
fields
shafqat
pohanch
latter
ict
sachha
170
badhaye
chaiya
addict
visual
dhari
udit
spark
corporation
kehlata
formed
vyavastha
piye
dati
khaoge
ghutno
majdoor
2500
stance
domingo
subtle
housing
timely
compassion
banwaya
dope
whilst
sitam
marungi
superman
pary
bribe
arahe
kharche
peecha
hur
dilaya
jugad
amigos
silsila
jumma
ot
awaited
eggs
2006
bobo
khulke
noodles
syndrome
comedians
sambhala
bhayankar
ohho
amd
teesri
suman
liner
applicable
kiyon
yuvi
addresses
launching
gulf
1mph
darwaza
bolen
airforce
appeared
kitta
gawa
bindi
katha
refugee
rhai
exp
dokha
vista
niyukti
sn
khari
seekhne
mains
nari
chamchi
subscriber
yek
lakar
ghalt
parsi
nyc
aoo
variants
jiti
singapore
costume
passionate
koie
kms
donated
dei
manoge
trainer
chhodkar
recommendation
masi
commented
sensacin
iraq
embarrassment
resolved
kayar
bhk
rishtedaar
captured
heartless
🙅
demeaning
khairat
momentum
stree
kor
tent
nyi
tuj
razi
implemented
lgaa
paat
fasi
dist
🍰
chirag
evn
chamak
dilao
represents
belive
shirts
manda
bhuk
tutne
retweeting
hann
lords
batayen
cuts
leny
located
potato
overcome
💤
dikhake
bha
alhamdulillah
discussions
cotton
detey
kabh
resist
kitnay
responsibilities
aar
wadi
vagera
cope
dosa
kafan
theak
maratha
execute
jaau
jeety
sueo
ghaas
jodhpur
dekhun
gayan
qasoor
unpar
dariya
amendment
jumme
bekaraar
cracker
fatafat
yudh
nc
absent
khatarnaak
zikar
muskurate
conservative
mullah
rm
dma
bikta
📚
manny
80s
heck
scrolling
vile
releases
bengaluru
riste
broadcast
yd
jila
kaate
actresses
traitors
noch
pill
wagerah
humar
bardaasht
bend
encouraging
pagalpan
shweta
tesla
sheep
pv
ruler
15th
comrade
spoiled
saints
chek
rad
khete
humaari
carpet
btayega
iii
5oc
omar
liken
cole
clap
reflect
merely
ari
boosters
finest
atti
golf
dilana
sue
bhage
disguise
mager
gmt
opposed
kyc
barr
saktha
aak
insecurities
factors
abadi
chhed
larky
parde
dems
bataoge
promising
bros
evolution
eastern
dab
pcs
didu
deities
swift
maxwell
coca
greedy
bmw
bnayi
pussy
filters
bake
frustrating
laayak
documentary
admired
scratch
sketch
dunno
shabdo
haveli
kitane
maango
favouritism
puran
sata
ghnte
chemical
rahogi
manipulated
beware
faraz
huin
kharide
drs
texas
wafadar
crude
fansi
reasonable
kahn
apani
webinar
reset
uploaded
🙀
massacre
ranchi
ima
loksabha
aps
voto
exo
kuldeep
makin
contender
aagy
prachi
liberty
dame
targetting
bpl
reflection
riding
lae
fass
laxman
hadith
esto
utarne
berozgari
inkaar
mehmood
paon
issued
species
gujjar
icici
intolerant
bears
fairy
noooo
balcony
morcha
yummy
vrat
chk
udate
ummah
kitty
chalan
phansi
redemption
collective
aayengi
expiry
nuts
airports
0oc
subhash
parler
bawjood
🧘
shark
aakhiri
daulat
dukha
featured
nri
gurdwara
accidentally
buildings
removing
👺
bardash
ghanto
snowfall
louder
sonch
objective
creates
kahana
discover
bheju
harmful
shed
trusting
gehra
gurl
ww
safi
household
dosron
foe
manifesto
babli
pouch
guessing
formats
kaisy
settings
achar
rated
shahbaz
badan
blocks
hukum
waje
baniya
mandar
jaayein
bhand
ghoda
bikne
brainwash
scorer
eliminated
martin
logun
influencers
acted
strangers
sudhrega
vaada
sweety
300k
rakhoge
vast
vishay
vohra
gehri
volta
bangkok
vodka
betting
iaf
congo
lc
jinme
soni
collector
disrespecting
dimple
suitable
yuvao
samjhate
niklegi
cid
40k
elia
chodi
forgetting
predictable
bataao
obvio
umesh
muzhe
restaurants
karvaya
buttering
garibon
kranti
chilling
angles
humaray
liquor
requirement
bury
sandesh
sie
aisehi
wives
edx
rocky
logically
gola
kachre
audition
🛐
kray
overthink
gopal
toilets
arranged
nalle
dhobi
kaabil
mighty
rathore
rival
maina
tributes
10c
mahindra
jimmy
dipika
influenced
proposed
vihar
ittu
rounds
arsa
chatni
catches
principle
rod
aux
java
ghamandi
donald
challenging
sehmat
endgame
maarega
khof
lighter
interior
joota
kharidna
sumit
2001
maldives
matic
modis
balaji
gadar
jage
scheduled
chitra
liyee
chalak
titles
nvr
🍃
demi
samajte
gabba
anjana
swiss
portion
banker
province
tujse
vajpayee
henry
inaugurates
nazi
nark
repost
doit
koshis
monk
🥊
sambhav
palle
rakshas
verdad
raees
squid
arrives
peeps
adil
ave
hana
appreciating
treats
malaysia
payments
hobby
goods
sneha
likhega
maarenge
bv
yoon
artistes
🔗
sings
shehzad
raaton
initiated
tht
sawar
raut
mitha
sean
grief
🤠
peso
quest
naan
laina
ayn
pahuche
harris
lash
khareedne
britain
hemant
pote
anwar
khatri
stations
wr
24th
mates
995
atmosphere
lolz
kere
ritual
separation
allahabad
commentator
denay
practicing
jug
nuqsan
thugs
experimental
pagl
bajaya
inhuman
purse
108
baithkar
kliye
jacqueline
strengthen
sadme
🎥
twitch
aasha
helpline
mausi
impose
twinkle
sono
nend
spa
flops
jamun
nate
unlock
tariff
banter
namumkin
intensity
unhon
milty
maani
karati
bigotry
decides
apradh
hazir
dilbar
cops
mujko
peechy
choo
suite
chayie
kfc
disclaimer
wom
tennis
💵
himesh
haiiii
karrahi
sati
kayam
haai
overnight
dona
tees
assault
pris
ismail
🐱
hairs
mediocre
gained
cheezain
jahangir
secretly
advani
ships
udher
ema
pardon
jumped
taraha
mosques
badam
electoral
sonakshi
nba
hash
sleeps
previously
meherbani
badlav
shutup
jalna
equivalent
consumption
pei
lagni
bhutan
vish
judgment
rupe
washington
wl
gash
hut
ranked
samsya
ip
ghayal
bechain
gunaah
cooler
kira
anya
ajnabi
hawale
rob
aashirwad
bewakoofi
oyee
ref
revision
yoh
kholta
frankly
badhaya
islamist
muth
laagu
💧
qurbani
kc
jehadi
chijo
padhayi
crystal
reader
samundar
denying
uthta
waves
bcz
ree
rooms
nasty
signals
tambin
izhaar
qaid
secondary
ikon
newport
bao
pious
cared
turu
decline
nikhil
billionaire
122
gaaye
activists
hainn
lisa
bolane
rapid
mount
slapped
aru
devar
psand
nokia
bolni
kedar
👄
jabh
gharon
rakhke
nerves
gurudware
saam
sukhi
dadaji
patani
lineup
yae
notre
maamle
chhodna
dekne
haircut
packing
roaming
indicator
habits
fathers
honored
accordingly
rc
concentration
kute
expressed
rom
toward
excise
💆
feminists
keu
rankings
chandu
baras
bhanushali
tfl
thanksgiving
prakat
sankhya
shraddha
aina
pakadne
bhoj
finisher
pos
phar
9mph
ew
discovered
pia
rb
itll
narrow
manav
yusuf
folk
rakhy
morality
oopar
turkish
prep
liyay
niwas
sandwich
kheer
cloudbase
uu
bhumi
rahee
liquid
lands
matrix
wjah
bsf
parali
recognise
dekhao
hunter
clever
heavily
restricted
moms
conviction
cashback
wholesome
enna
chahay
rasheed
bnati
bookmark
mathematics
govinda
brief
bhugat
looting
1km
khulta
subs
🍷
vietnam
scriptural
kholte
auraton
upside
globally
pradeep
naatak
malhotra
vikaas
globe
baniye
750
atey
poha
105
udne
siddiqui
kehny
samajhdaar
rehni
palak
fadnavis
niklenge
nta
soda
veteran
warming
chowkidar
violation
owns
vihari
bebe
ura
visits
loco
boley
slim
originally
morals
inkar
najayaz
zamin
maru
dots
sakun
jv
bel
doggy
musa
undoubtedly
gusting
karyawahi
consume
pariksha
rome
interactive
aahe
shikaar
mardon
rog
sunwai
kehke
palo
raazi
vipin
tjhe
saheed
embarrassed
pockets
pocho
waat
clubs
drr
karai
affection
washed
lynched
saken
maray
processing
mos
oath
nephew
untill
bud
hugging
rv
parampara
zaada
raag
dhoti
wakai
🍿
knower
madhyam
jayo
nipta
uthte
karin
shaamil
purely
greed
closest
pujan
tempo
trustworthy
badane
covers
iccha
okey
salwar
therapist
earnings
shubham
rolling
vp
logone
akin
hosted
shalwar
workshop
dhanteras
diva
bori
30am
mountains
existed
🌲
isay
karugi
copying
karim
jhak
operations
wore
siksha
rahana
betrayed
nab
maharani
maangta
sangeet
_____
incredibly
gujrati
humanitarian
sirsa
rejection
eternity
karwani
seneca
survived
accuse
seasonal
walid
reaches
barha
cena
spain
seor
waking
bolay
coma
janaza
flags
knight
batwara
ska
looted
qadir
spanish
ishi
mahima
hathras
burayi
meharbani
hq
cheekh
nearby
16th
galtiyan
kripaya
misal
bhoolna
balidan
benazir
aakh
chd
jho
lq
sola
sacked
wayne
majaak
intact
cherish
announces
rulaya
creators
shankaracharya
chuppi
padhenge
foreigners
yak
kbse
yle
disciple
bhookh
acid
reacted
bajne
ussko
objection
jaynge
casteism
florida
slo
arshi
comp
sakthe
patakha
milla
liners
dual
aids
messenger
telecom
karmchari
reminding
wed
mantras
illusion
mina
ganta
chupchap
gauahar
jass
bhayi
pueblo
hacker
mzak
abhitak
khail
yen
tooti
bachayega
quin
applies
placement
daroga
bhijwa
dwpt
cooked
developer
aaaaa
nit
chutney
jhuthi
paayegi
teddy
oppression
appoint
tumahri
associate
wouldve
specs
neo
economist
ape
trades
headphones
dhool
sampatti
unwanted
sindoor
killings
livefeed
dikhava
traditions
🌱
rakhu
🎃
barf
hardcore
hojayenge
smaller
acharya
muharram
bhejenge
bankrupt
struggles
console
karsakta
gabbar
swap
pahly
santo
garima
dictator
samandar
genda
remained
waiter
watermark
uthakar
booth
gaay
desert
naate
laag
bandook
marrying
kato
partiality
chhutti
weddings
115
sair
posh
retailers
byee
rot
rupiya
gather
belly
irresponsible
blushing
poochne
sibling
deewani
rangu
equipment
introduction
sikhaye
witch
mahilaon
adami
giraya
baatien
barsa
thikana
reacting
chilli
aey
sii
17th
top5
fooling
yards
penny
khulega
youngest
☘
cuddle
owe
bhulne
earphone
jadoo
invent
1965
baadh
isb
6k
salaries
wal
akr
hawan
capita
rapidly
naive
mithi
suba
jaguars
poochte
unacceptable
pulao
elaborate
bakiyon
nhiii
haqdaar
improving
awe
fried
purposely
beds
passand
primero
dhabba
bhedbhav
seed
ayan
lagayega
paaoge
arman
🧍
thapad
8pm
larko
chintu
hahahahahahaha
aalam
choron
contracts
underwear
laiba
simplicity
joki
described
khushiyaan
presan
chattisgarh
characterless
2x
distribute
kub
agrawal
fck
het
diplomacy
behti
futures
boly
scott
filmfare
stray
lagda
bimaar
colonial
eps
ullah
layer
malang
tyaar
innocence
snacks
ces
theke
sahid
pnr
kissa
deeper
ahe
reopen
motu
flush
poti
meenu
heroic
karname
blaze
kashmiris
jaisey
bandha
pairon
sagi
lekhpal
beemar
disturbed
weekends
nha
stoop
😽
tehsil
oldest
safely
jewish
absurd
makkar
affordable
farmhouse
cement
ramji
milengi
vegetables
atul
adda
rely
manger
wasy
choudhary
akshita
suspect
mehngi
gajar
invincible
sih
stages
archer
boots
shopkeeper
leftists
tare
wankhede
dull
chahey
meerut
velli
smp
bastard
jaleel
pss
sambandh
lighting
bbl
akhiri
kahoon
artiste
kue
ding
tule
bm
tanu
mustafa
manipulative
anjam
eek
eric
islaam
trips
112
taluq
jhatke
raul
gavaskar
fuss
mahadeva
godhra
cupcake
tgt
ping
ayya
hail
profitable
rishto
realisation
ghazi
thod
123
sree
dive
abid
imli
bhulo
logonko
vedic
betho
ath
mkt
internationally
baata
kaju
shield
ties
walls
27th
badhate
dnde
ranting
tama
grocery
tyag
paro
damaged
fold
gaaliyaan
mahir
waist
rgpv
illegally
sui
padhate
chillar
mujrim
vampire
akmal
daikha
mamma
ajab
anta
awara
swayam
vani
rebel
responding
flipper
compromised
sachcha
residence
refugees
regressive
manmani
apradhi
cheezen
wears
jupiter
nisha
agha
scare
ghumti
🔁
top2
dhule
woah
rohini
revolutionary
billa
adaa
icecream
bhago
ojal
hra
centers
chodega
observed
chhath
dearest
karwati
gareebon
gall
ladder
surface
mashal
jubaan
concepts
allegedly
preeti
jino
scattered
bolny
embrace
mehman
lagoge
frustrate
recreate
northampton
lolipop
participated
kraya
claus
shortly
333
terrace
kutty
cadeau
justicia
lapata
burkha
talaash
faheem
shani
hogy
abhira
theirs
2mm
nishana
bella
sincerely
leverage
nav
mutabiq
uhh
rubber
nest
jaanwar
performer
amg
sushi
apprentice
atke
lik
inshaallah
tezi
chillana
tia
countless
filing
arse
patte
itney
cma
pakke
scholars
ganna
jaaunga
matam
stunts
jhansi
thar
dik
yehe
highlighted
kaas
afgan
melt
faint
polite
ddlj
chane
bolraha
anokha
increases
imposed
representing
einstein
hugged
dias
tarik
🐥
niece
classmate
ajana
usage
8k
rewards
chahia
>
M
T
[
\
]
{
}
↔
↕
↖
↗
↘
↙
↩
↪
⌚
⌛
⌨
⏏
⏩
⏪
⏫
⏬
⏭
⏮
⏯
⏱
⏲
⏳
⏸
⏹
⏺
▫
◀
◻
◼
◽
◾
☁
☂
☃
☄
☎
☔
☢
☣
☦
☪
☮
☯
☸
♈
♉
♊
♋
♌
♍
♎
♏
♐
♑
♒
♓
♟
♠
♣
♦
♨
♻
♿
⚒
⚓
⚔
⚕
⚖
⚗
⚙
⚛
⚜
⚧
⚪
⚰
⚱
⚾
⛄
⛅
⛈
⛎
⛏
⛓
⛔
⛩
⛪
⛰
⛱
⛲
⛳
⛴
⛵
⛷
⛸
⛹
⛺
⛽
✂
✉
✏
✒
✖
✝
✡
✳
✴
❇
❎
❔
❕
➕
➖
➗
➰
➿
⤴
⤵
⬅
⬆
⬛
⬜
⭕
〰
〽
割
可
営
得
指
有
満
無
祝
禁
秘
空
🀄
🃏
🅰
🅱
🅾
🅿
🆎
🆑
🆒
🆓
🆔
🆕
🆖
🆗
🆘
🆙
🆚
🇯
🇴
🇶
🇻
🇼
🇽
🇾
🌀
🌁
🌂
🌃
🌆
🌇
🌉
🌊
🌋
🌌
🌏
🌐
🌑
🌒
🌓
🌔
🌕
🌖
🌗
🌘
🌛
🌜
🌠
🌡
🌤
🌥
🌦
🌧
🌨
🌩
🌪
🌫
🌬
🌭
🌮
🌯
🌰
🌴
🌵
🌽
🌾
🍄
🍅
🍆
🍇
🍈
🍉
🍊
🍋
🍍
🍎
🍏
🍐
🍑
🍒
🍓
🍔
🍕
🍖
🍗
🍘
🍙
🍚
🍛
🍜
🍝
🍞
🍟
🍠
🍡
🍢
🍣
🍤
🍥
🍦
🍧
🍨
🍩
🍪
🍬
🍭
🍮
🍯
🍱
🍲
🍳
🍴
🍵
🍶
🍸
🍹
🍺
🍼
🍽
🎀
🎇
🎋
🎌
🎍
🎎
🎏
🎐
🎑
🎒
🎖
🎗
🎙
🎚
🎛
🎞
🎟
🎠
🎡
🎢
🎣
🎦
🎨
🎩
🎪
🎫
🎬
🎭
🎮
🎰
🎱
🎲
🎳
🎴
🎷
🎸
🎹
🎺
🎻
🎼
🎽
🎾
🎿
🏀
🏁
🏂
🏄
🏅
🏇
🏈
🏉
🏊
🏋
🏌
🏍
🏎
🏐
🏑
🏒
🏓
🏔
🏕
🏖
🏗
🏘
🏙
🏚
🏛
🏜
🏝
🏞
🏟
🏡
🏢
🏣
🏤
🏥
🏦
🏧
🏨
🏩
🏪
🏫
🏬
🏭
🏮
🏯
🏰
🏳
🏴
🏵
🏷
🏸
🏹
🏺
🐀
🐁
🐂
🐃
🐄
🐅
🐆
🐇
🐈
🐉
🐊
🐋
🐌
🐎
🐏
🐑
🐓
🐔
🐗
🐙
🐚
🐛
🐜
🐝
🐞
🐟
🐠
🐡
🐢
🐣
🐤
🐦
🐧
🐨
🐩
🐪
🐫
🐬
🐭
🐮
🐯
🐰
🐲
🐳
🐴
🐵
🐸
🐹
🐺
🐻
🐼
🐽
🐾
🐿
👂
👃
👐
👓
👔
👕
👖
👗
👘
👙
👛
👜
👝
👟
👠
👣
👤
👥
👦
👧
👪
👫
👬
👭
👮
👯
👰
👱
👲
👳
👴
👵
👶
👷
👸
👼
👾
💂
💄
💇
💈
💊
💍
💏
💑
💒
💠
💡
💢
💬
💭
💮
💱
💲
💳
💴
💶
💷
💹
💺
💻
💽
💾
💿
📀
📁
📂
📃
📄
📅
📆
📇
📉
📊
📋
📎
📏
📐
📑
📒
📓
📔
📕
📖
📗
📘
📙
📛
📜
📝
📞
📟
📠
📡
📣
📤
📥
📦
📧
📨
📩
📪
📫
📬
📭
📮
📯
📰
📱
📲
📳
📴
📵
📶
📹
📻
📼
📽
📿
🔀
🔂
🔃
🔄
🔅
🔆
🔇
🔈
🔉
🔊
🔋
🔌
🔍
🔎
🔏
🔐
🔑
🔒
🔓
🔕
🔖
🔘
🔙
🔚
🔛
🔜
🔝
🔞
🔟
🔠
🔡
🔢
🔣
🔤
🔦
🔧
🔨
🔩
🔬
🔭
🔮
🔯
🔰
🔲
🔳
🔵
🔶
🔷
🔸
🔹
🔺
🔻
🔼
🔽
🕆
🕋
🕌
🕍
🕎
🕜
🕝
🕞
🕟
🕠
🕡
🕢
🕣
🕤
🕥
🕦
🕧
🕰
🕳
🕴
🕵
🕶
🕷
🕸
🕹
🖇
🖊
🖋
🖌
🖍
🖑
🖒
🖓
🖖
🖥
🖨
🖱
🖲
🖼
🗂
🗃
🗄
🗑
🗒
🗓
🗜
🗝
🗞
🗡
🗨
🗯
🗳
🗺
🗻
🗼
🗽
🗾
😺
🙍
🙎
🚁
🚂
🚃
🚄
🚅
🚆
🚇
🚈
🚉
🚊
🚋
🚌
🚍
🚎
🚏
🚐
🚑
🚒
🚓
🚔
🚕
🚖
🚗
🚘
🚙
🚚
🚛
🚜
🚝
🚞
🚟
🚠
🚡
🚢
🚣
🚤
🚥
🚦
🚧
🚪
🚫
🚬
🚭
🚮
🚯
🚰
🚱
🚲
🚳
🚴
🚵
🚷
🚸
🚻
🚼
🚽
🚾
🚿
🛀
🛁
🛂
🛃
🛄
🛅
🛋
🛌
🛍
🛎
🛏
🛑
🛒
🛕
🛖
🛗
🛠
🛡
🛢
🛣
🛤
🛥
🛩
🛫
🛬
🛰
🛳
🛴
🛵
🛶
🛷
🛸
🛹
🛺
🛻
🛼
🟠
🟡
🟢
🟣
🟤
🟥
🟦
🟧
🟨
🟩
🟪
🟫
🤎
🤖
🤛
🤜
🤥
🤰
🤱
🤳
🤴
🤵
🤶
🤸
🤹
🤺
🤼
🤽
🤾
🤿
🥁
🥃
🥄
🥅
🥇
🥈
🥉
🥋
🥌
🥍
🥎
🥏
🥐
🥑
🥒
🥓
🥔
🥕
🥖
🥗
🥘
🥙
🥚
🥛
🥜
🥝
🥞
🥟
🥠
🥡
🥢
🥣
🥤
🥥
🥦
🥧
🥨
🥩
🥪
🥫
🥬
🥭
🥮
🥯
🥷
🥸
🥻
🥼
🥽
🥾
🥿
🦀
🦂
🦃
🦄
🦅
🦆
🦇
🦈
🦉
🦊
🦌
🦍
🦎
🦏
🦐
🦑
🦒
🦓
🦔
🦕
🦖
🦗
🦘
🦙
🦚
🦛
🦜
🦝
🦞
🦟
🦠
🦡
🦢
🦣
🦤
🦥
🦦
🦧
🦨
🦩
🦪
🦫
🦬
🦭
🦮
🦯
🦰
🦱
🦲
🦳
🦴
🦵
🦶
🦷
🦸
🦹
🦺
🦻
🦼
🦽
🦾
🦿
🧀
🧁
🧂
🧃
🧄
🧅
🧆
🧇
🧈
🧉
🧊
🧋
🧎
🧏
🧑
🧒
🧓
🧔
🧕
🧖
🧗
🧙
🧚
🧛
🧜
🧝
🧞
🧟
🧠
🧢
🧣
🧤
🧥
🧦
🧧
🧨
🧩
🧪
🧫
🧬
🧭
🧮
🧯
🧰
🧱
🧲
🧳
🧴
🧵
🧶
🧷
🧸
🧹
🧺
🧻
🧼
🧽
🧾
🩰
🩱
🩲
🩳
🩴
🩸
🩹
🩺
🪀
🪁
🪂
🪃
🪄
🪆
🪐
🪑
🪒
🪓
🪕
🪖
🪗
🪘
🪙
🪚
🪛
🪜
🪝
🪞
🪟
🪠
🪡
🪢
🪣
🪤
🪥
🪦
🪧
🪨
🪰
🪱
🪲
🪳
🪴
🪵
🪶
🫀
🫁
🫐
🫑
🫒
🫓
🫔
🫕
🫖
󠁢
󠁣
󠁥
󠁧
󠁬
󠁮
󠁳
󠁴
󠁷
󠁿
##ar
##ha
##hi
##ai
##in
##an
##at
##he
##er
##ah
##al
##re
##on
##ta
##is
##aa
##te
##ne
##ya
##ng
##nd
##en
##ti
##ay
##ch
##ra
##na
##es
##se
##am
##ur
##ahi
##or
##le
##as
##st
##ad
##ou
##ot
##nt
##iy
##ab
##it
##la
##ye
##ing
##ri
##ee
##ea
##ke
##ak
##ho
##me
##ll
##ir
##il
##ro
##ve
##ga
##et
##um
##th
##ol
##li
##ed
##ut
##rt
##un
##ma
##el
##di
##ain
##us
##ag
##oo
##og
##da
##io
##ss
##uc
##sh
##ic
##ap
##kh
##ge
##ni
##om
##si
##iye
##han
##de
##ik
##aha
##uch
##ion
##ki
##oh
##eh
##ce
##ac
##ise
##ei
##ns
##ow
##hu
##ec
##ka
##rs
##har
##nk
##ara
##iya
##ly
##ia
##od
##ek
##id
kuc
##ere
##im
##rn
##lo
##ati
##jh
##are
##sa
##ct
##hat
##os
##tio
##oi
##tion
##ul
##aya
##eg
##bh
##sk
##ie
##uj
##ent
##ate
##ata
##aj
##pn
##ais
##ht
##wa
##hai
##ein
##em
##art
##ter
##ota
##ts
##aat
##bhi
##ry
##ujh
##aar
##pe
##and
##aye
##nc
##mp
##jhe
##ana
##ujhe
##mi
##gi
##tn
##aise
##ko
##ru
##tt
##to
##ig
##ck
##ala
##ey
##hin
##ers
##one
##no
##ant
##iv
##op
##av
##ud
##rd
##ov
##hah
##tr
##gh
##pp
##pa
##ekh
##ver
##pne
##ega
##au
##est
##lt
##rat
##ty
##ist
##ath
##oc
##cc
##arn
##ame
##cha
##nge
##dh
##hal
##ind
##ill
##we
##all
##tu
##ue
##pl
##ahe
##ndi
##her
##ld
##ja
##aan
##ba
##ess
##vi
##ari
##his
##ua
##ali
##ine
##hir
##mar
##yi
##ith
##so
##yu
##ada
##po
##our
##ran
##eet
##rk
##ci
##tan
##abh
##ale
##era
##ama
##rr
##nn
##atio
##ation
##nce
kiy
##eri
##ca
##abhi
##isi
##up
##ome
##ake
kais
##ach
##end
##fe
##rna
##men
##tin
hog
##ust
##ast
##ep
##ear
##if
##sta
##ime
##ong
##hn
##ive
##ew
##ove
##ect
##kin
##ikh
##aal
##hen
##hl
##rm
##hiy
##ang
##go
##ev
kart
itn
##ls
##aro
##isa
##eas
##ane
##res
##dia
##bl
##co
##kt
##eng
##ave
##aga
##ting
##ment
##hiye
##ish
##kha
##ok
##tna
##ny
sta
##man
##ort
##rte
##che
##ase
##ike
##aam
##nte
##aad
##pi
##hahi
##aki
##igh
##ote
##pk
##ght
##az
##ahiy
##du
chahi
##ahiye
##be
##mm
##ske
##ren
##ons
##nke
##rne
##ayi
##ide
##sha
##ore
##mo
##ys
##oti
##hahiy
chahiy
##ard
##hahiye
##uk
##hy
##eo
##cch
##ost
##ub
##aw
##af
##oga
##fi
##rea
##esh
##enge
##ste
##ona
##mh
##ted
##tte
##age
##gar
##cti
##ao
##hot
##adi
##tl
##wee
indi
##ani
##nda
##ds
##lly
##00
rea
##ogo
##der
diy
##oll
##sl
##the
##ice
##ina
##ff
##umh
tumh
##gr
##hr
##oun
##lat
##mb
##ndia
##iti
##weet
##ete
##hut
##hara
##ight
##ura
##ree
##ark
##lea
##ood
##ure
##ade
##ip
##stan
acch
##hey
##akt
##do
bac
##va
##rta
##een
##ont
##ej
##ity
##hing
##rf
##hh
##ank
##ble
##rom
##ug
##tc
##ple
##eal
##sti
wor
##ob
##out
##akh
##arna
##rl
##nde
##ash
##ass
gha
##ery
##lu
ach
##ans
##ile
##ene
##anc
##lin
##kar
##sp
##hle
##nal
##bo
##por
##eve
##ese
unk
##ef
twe
##yun
##tor
twee
##ks
##day
##ead
##ally
##rie
##uru
##ui
##port
##nti
##ther
##ell
##bi
##tter
##pt
##arte
##ahu
##ami
cl
sakt
##eat
##odi
##tar
##awa
##rati
##itn
##za
##chi
lov
##ien
##app
##nl
##yeg
##tic
lek
##arne
##adh
##ack
pla
##gt
##rit
##ham
##ssi
##rti
##ji
##aran
##tch
##hud
##ies
##leas
##haa
##ele
##ease
##ite
##lm
ins
##yo
##nta
##low
##son
##sse
##wi
##ena
##ola
##llo
##shi
##eta
##ft
##ib
##oul
##ush
##unt
##hoo
##ista
##ous
##ms
##king
##oin
##eed
##ehl
##alo
##hna
##ln
##nin
##lk
##hte
##sn
##enc
pehl
##dha
##act
sup
##ech
##dd
##ning
##ita
##ctio
##nh
##hay
##ction
##now
##ikha
##sm
##alt
##sko
##ayeg
##su
##ndu
soc
res
##per
##hod
##und
##egi
##uld
##istan
##rg
##yad
##ions
whe
##lease
##ould
##ppo
##hou
##ink
##apk
cou
##oa
##eli
py
aapk
##yaa
##tur
##oy
##ays
##gl
##lay
##ila
pya
##ika
##rin
kno
##ven
##atc
##atch
##oli
##nts
##lle
##och
##eb
##oon
jais
##ica
##ail
##how
##tne
##rc
##thi
##irf
##ori
mus
##hta
##sli
##ini
aat
##hee
##ress
##tiv
##nga
##llow
##ron
##use
##aba
##ick
##dy
##cr
##lla
##sio
##pr
##sion
##mn
##ich
##here
ple
##aun
##din
##eel
##ann
##eti
##lan
##ian
##lit
onl
##ose
##aja
##min
##ung
plea
##hil
##eme
##nat
##tra
##ence
##oda
pleas
##leg
##ook
##dar
##aid
##ogi
##bs
##ance
##nes
##indu
##ccha
prat
##les
##ber
##agt
##ehle
##ten
##yega
##ahan
##eki
##ula
##ntr
##itt
##tik
##nst
##fo
##eja
##ska
##cu
##dk
##eam
##ekin
sto
##ahut
##je
##wer
lagt
##hel
##oth
##omp
leki
krn
kitn
##rke
isk
##oor
##tions
##den
##uma
##san
##lic
##gta
##tat
##ole
##nu
##tes
##aare
##ial
##eek
##ding
##rv
##ait
##sin
##ace
##nne
##upp
##ugh
##mha
##uri
##kis
##mes
hap
##ount
##edi
happ
##atik
##nf
krt
##ratik
##cke
##kist
##kista
##kistan
##akis
##ram
pakis
##akist
##akista
##akistan
pakist
##mhe
pakista
##tni
##sed
##olo
##gn
##omm
##sr
##nly
##way
##ling
##pni
##very
nik
##ife
supp
##ollo
##nki
rep
##ollow
##rst
##cia
##ws
##oot
##mj
##rth
##umhe
##pec
##ris
##ric
##mhar
##kal
##ppor
##pport
##kta
mak
##hor
##arta
##mne
##iss
##nder
##int
##nter
##aru
##umha
##ij
##ahin
##lta
tumha
##uy
fol
##yin
abo
wai
##uti
##gs
##red
##uppo
suppo
##py
##ying
##hank
##rou
##khn
##hem
##aath
##bou
comm
##yada
##lli
##mpl
##bar
##umhar
##eop
##hon
##nds
##orr
##rac
tumhar
##oge
##tro
##ela
##hes
##opl
##ster
##ett
##pna
##yan
##ord
##arm
peo
##wn
foll
##aine
##ople
##ayega
follo
##eopl
##eople
peop
peopl
##ket
##ring
##uppor
##upport
suppor
##chh
##thin
##ner
##rien
##ae
##hare
##gre
##oss
##for
##ern
##pen
rel
##dn
##rma
##ono
##gu
##ond
##ps
##bout
##liy
abou
##had
##hei
##att
##ens
str
hel
##mbe
##ock
inte
##yaar
##alm
##hak
##xp
##alat
##ral
##jp
##ars
##02
shar
##tal
##owe
##ual
##pko
##ool
lif
##ecti
##agi
##aisa
##ire
##fu
##nch
##kho
##nko
##mjh
##ture
##tha
pyaa
##cho
##ever
##orm
##onal
##hne
##arr
##rah
##ents
##vo
##gai
##thing
##oe
##ora
bes
##mme
##mber
##tive
##ovi
##itte
##nse
##xa
##eht
##ues
##lma
##agta
##aren
##par
##war
##ski
##mil
##khi
##kte
##shan
##ida
##eec
##ange
##bk
##eech
##nsa
##usl
##pu
##iz
##ute
##asa
##nj
##oug
##ets
##ii
##arti
##aza
##hink
##lti
##kht
poli
##vie
##ough
##hm
##alma
##spe
twi
##ex
##adk
##cal
pais
##uni
##nis
##liye
##lte
##nv
##reat
exa
##iend
##eir
##arke
##yon
isl
##hus
##aka
##lf
##riend
##amj
##anta
##ins
##ima
##lman
##gg
##alman
##ngs
##fic
##erv
##mpa
##sne
##ili
##olt
##ehe
##eci
nika
##abl
##ces
##gain
##wit
##hant
##fa
##tti
##dl
mov
##xt
##ert
##ngl
##mit
##emp
##oj
##amar
##tai
##nhe
##dr
ther
##ary
##of
##andi
##hul
##ahar
##ngr
##lw
##nka
##itna
unh
spe
##sit
##ork
##nsi
##cto
##aas
##lp
##ude
##lwa
##aus
##anda
##ehn
##heir
##led
bolt
##itter
vot
tru
pho
##lec
##ku
##qu
##rge
##rend
##len
##lab
##ily
##lar
##rni
##fte
##amn
##ngi
hama
sac
##tay
##akta
##ull
##rty
##str
##air
##mat
salm
##esti
##lis
##witt
##hala
##apa
twitt
##ves
##witte
##witter
##lega
twitte
salma
##eak
##eep
##ikal
##aho
##rio
##ean
##ger
##irt
##ctor
##eac
##iou
##vin
frie
##lect
##aso
hamar
##bu
##ode
##ppy
##rw
##ower
##abk
##eth
frien
202
##kk
##ze
##eco
##ope
##ici
##ffe
##rso
##lso
##maj
##iste
##ehi
ladk
##mer
huma
##any
##ivi
##ume
##rry
##ira
##rai
##appy
##pect
##sing
##ph
boh
##cket
##eca
##esp
als
##cial
##lim
##lne
##deo
##wo
##iji
##sc
##reg
##amaj
##rob
cri
##mare
##ssa
##haya
##ult
##ors
##aiy
##hab
##pre
##umar
##icke
##ectio
##tly
##oke
##esha
##ection
##hari
##amjh
##lah
##gin
##nit
##ser
##ious
##over
##rab
##ory
##enti
##tand
##tiy
##eer
##ekha
##irs
col
jayeg
pers
vide
##log
fac
##rson
zi
##cche
##own
##tri
##erso
##hs
##lati
oth
##wal
##urs
##khe
othe
##dit
##ical
##erson
##ause
##cl
##ongr
##fer
congr
##isk
##lem
##bse
##rre
##ez
##umb
##akte
sabk
##abar
##ideo
##iva
##iona
##able
stu
aft
##ely
##epl
##til
##fter
##sy
##alk
##my
##acha
bab
##dhi
##ful
##aht
##nna
##nay
ov
##nan
afte
##rse
##mple
##cat
##aq
##ero
bur
##hang
matc
##top
##ppe
##ats
perso
##tre
fre
##ndh
##lna
##tart
##atl
##lam
##rop
##oln
##tiya
##bb
##pin
##inda
##ply
ove
##amne
fai
##hone
movi
##uka
rig
##vel
##lway
##dent
##rus
##arty
##haha
##rde
##usi
shou
##sto
##ason
##ated
##omme
##oday
##arl
##aste
##rp
##ict
##get
##hip
##elp
##ound
righ
##oes
##usr
##easo
##eason
##llah
##hit
##dian
##huk
##rwa
##las
##amil
##ovie
##rong
##emen
##tua
##yp
##roo
##let
##ews
##oing
##ctu
##old
##tla
shu
##yen
giv
##asi
##aap
##tta
boln
##gle
##una
##ekhn
repl
##br
##xam
##ned
##atu
dusr
##gy
##kl
##pke
##mmen
##nm
##ssio
##cs
##ssion
##hush
##rol
##arat
##icket
##obl
medi
##hata
##ker
matl
##gra
##rka
##ving
##hd
##abi
##isha
##ways
##mr
##hik
##ement
##hale
##rec
##ommen
##tain
##tm
dekhn
##aay
##ings
nat
##01
wel
##tw
##houl
##sme
shoul
##hould
##lie
##cco
##arka
##000
##oble
##yar
##ional
comme
##ations
##ses
##ndo
##ahah
firs
##elf
##arg
##cen
##ains
tren
##eni
beca
##urn
##mal
cla
##gres
acco
##ubl
##hag
rec
##gal
##hand
poo
##sel
##gress
##ilt
##essi
##robl
probl
##iew
##hti
##tle
##dhar
jya
##cou
##tlab
##atla
##acc
##saa
suc
insa
##hool
##blem
##roble
sti
##oblem
proble
##roblem
unde
liv
##dg
acti
##emb
##wan
##reng
##tel
##irst
##yer
commen
##ema
##ders
##hol
seri
##gay
muc
##atlab
##ndian
##omo
kark
matla
##khna
musl
##jo
##eha
##try
##rate
##usli
##gat
musli
##cau
##hana
##unga
##ayin
##tory
##inal
##slim
##mment
##uslim
##ecau
##arah
##omment
##yeng
##lity
##yt
alw
jyad
coun
resp
##aying
##caus
##ism
##cause
##tie
##rad
##ecaus
##ecause
fil
becau
##dm
becaus
##sliy
##ayen
##lways
wais
##ekho
##tate
##latio
##lation
##spec
##rri
##tiona
##omi
fami
##less
##osi
famil
cor
##hic
##orl
##uh
##ante
pah
##amp
##haiy
##mag
##dki
alway
##ler
##ness
##avi
lin
##iso
##line
##urt
##uest
##rent
##aate
##rur
##mu
##ege
gra
##aak
##harm
blo
##rld
##heg
##tud
##wers
##hange
##nist
##orld
##ked
beec
##edia
##ics
##embe
##cy
##bli
##itne
jant
##ember
##orry
worl
##areg
##tam
##sliye
##ext
##laye
neh
isli
wee
khar
##uck
##eing
##dat
sor
##ehen
chang
##ldi
##iw
##ffi
##lecti
##anne
##yenge
##lig
##tif
##oto
##till
##ngre
watc
##oni
##rb
##tional
##ahaha
##akin
##irth
##pos
##shm
gre
##ask
##lag
##ady
##ray
##eply
##hri
zar
##inst
birt
##alit
##gan
##ym
wou
##ges
##cin
##vat
##apko
stil
##coun
##lon
##count
##pis
##adha
##ttin
nev
##ajh
woul
##ters
##mily
##ayeng
##ming
isliy
##hda
##ette
neve
##tting
##utt
zin
doe
##ract
##amily
##ria
##rch
##ines
##dt
##ras
##othe
##renge
##itio
zind
##gon
##rds
##pan
##nme
reht
##itic
##adki
##aram
##oz
##ainst
##nth
##ition
##med
##arur
##orn
##thd
##ney
##vers
gro
awa
##lz
##rts
##aaf
##arge
##com
##ries
##als
##ffic
##hur
##gains
agains
##gainst
##ax
##ongre
##ngres
##esi
congre
##spect
##ece
##hli
##ongres
##ngress
##mra
congres
skt
##ompl
rem
##ongress
##inc
fak
##hami
##hoda
##xpe
##uth
##cte
##shant
##ved
##oint
thes
##ours
##ache
##urat
##tual
##rega
##kti
##aree
##niy
##ukh
##tim
##ends
##ju
##apn
##eall
##eally
##uss
##rot
sark
##ccou
##ayer
haw
##cre
##ayenge
accou
##ccoun
##aaye
##ccount
##nve
##utu
##ilk
##aut
##abs
##irl
accoun
##lac
reall
##eke
##kr
##udi
##afi
##ativ
##dhe
sarka
##lete
##zi
wis
##hday
##thda
##rthd
##rthda
##irthd
##irthda
##thday
##eral
##rthday
sel
##irthday
birthd
birthda
##duc
##hota
##hese
##majh
##hk
##riv
##erf
##etter
##con
expe
##sla
cre
##espe
##tho
##oad
nis
##lectio
milt
##lection
##rity
##pki
##eets
compl
##ogon
kareg
playe
pres
jitn
##yone
##liti
##ndin
##unn
##orma
##hya
##olic
##pka
##amajh
fina
##ror
##ship
##igi
##dge
##sim
##cor
wer
##ifi
##ehna
##ald
##rdi
##ded
##ssu
daa
##iden
##ign
##other
##lh
##gen
##onf
##ffer
##erio
##loc
##elo
##itu
##kes
##tem
##read
##fr
##nding
##has
##ubli
##emi
##21
##des
waa
##llin
inst
##form
##niya
##ienc
##arw
##vt
##nto
##bha
##asan
elec
##oho
puc
##mba
##sid
##tent
polic
##ught
##rov
##arwa
##abse
##ndar
##rkar
##kka
##ments
##oom
##une
##lowe
##inn
bei
##mhare
##onge
##lling
##anch
##arkar
##eady
##unc
##apt
##iwa
##inis
behe
sik
##hane
##mesh
##ience
##ister
rela
##hun
##haht
chaht
conf
##eez
##nks
bea
##iver
##ept
lis
##alle
##ears
##nor
##eart
val
##uys
pub
sorr
##yth
##oic
##test
##ohi
##ndr
##ape
##weets
##hich
##zar
##serv
usn
stud
chh
##nmen
##xi
##andh
##pti
##rro
##nment
##mot
bein
##tant
##alti
##hej
##arc
##oice
##ames
##oha
##cati
##umhare
##evel
##met
##dmi
##uchh
##blic
nex
##ied
cle
tro
##espec
##espect
##lai
##rnin
##ompa
##rim
##imi
##lock
##rning
##atin
deg
##side
##alu
##hos
dim
##ublic
##areng
##aith
##lass
##hre
##rog
##oos
##hmi
publ
publi
##ato
##hed
hong
##riou
duni
##rious
##cchi
##mma
##hha
##uba
compa
zy
##illi
##tit
bett
##afe
##catio
##cation
##mesha
##elat
ret
##rce
##dag
##ileg
##mk
##aking
##llowe
##olit
##each
##ythi
##rh
##mee
##atam
##mita
##chin
201
##ythin
##tao
##ything
##nni
##ality
clas
##atr
clea
boho
##ohot
##eka
##ayad
##ibl
##ndag
##rve
whic
bette
##iaz
##ovt
##olte
##ban
##yegi
##hame
##khne
##akk
##atte
##pla
nati
maz
##harat
##mari
##row
##ntio
##mse
ria
##sic
##entio
cons
##hoot
##cus
##kul
##rite
##ecia
##rget
prom
##021
##sht
##arenge
##dagi
##achi
##ntion
##fere
##ention
##osh
##rvi
##ndagi
cel
##rder
##mran
scho
polit
##ano
##dra
dima
##lice
##mis
chil
##eren
##osit
##kat
##emo
##lled
##sand
##rey
##oliti
##ating
##yd
##she
##nati
maj
##rick
##amit
relat
##rue
##eck
##err
##aane
##ative
##onte
##rist
zya
##dam
kareng
##rain
##stin
##hatam
##litic
dra
##olitic
##saan
##dic
##dle
##siti
##uniy
##erst
##alis
##lia
kaba
##nja
##tis
##rya
politi
inf
##cri
politic
##hega
##sre
thou
stor
ope
roa
##ater
##xc
##nel
##cce
##idn
##olu
##uki
##oci
##ntry
##tude
##lv
##layer
natio
mileg
##rak
##anay
##idh
##bko
exc
##jiy
imr
bre
##rest
imra
##char
conte
##ksh
sabs
##indag
##reak
##oma
##gli
##iff
##hati
##rda
##nsh
ent
##ctiv
##rect
bos
hig
##rib
##amita
##maa
##olice
##umn
##omet
##uniya
##indagi
##ekht
##khte
##ix
##jiye
##acti
##ros
##idi
##eser
##untr
grea
duniy
##ountr
countr
##iends
##riends
##vid
##ih
##stic
##hamit
##cle
##choo
##wl
dekht
shamit
##ates
##lb
##hoto
bloc
##omen
##atter
##rsh
##mara
##rem
poi
nig
##aala
##ize
jisk
##yw
##erm
##ulat
##die
##houg
##hough
##ams
phot
##chool
##hamita
##tati
##apke
##lku
jah
##akti
ris
foo
##eserv
##lkul
##hoti
##ijiy
schoo
##tern
##mpo
##que
##sen
chuk
##ehta
##pea
##win
respe
##apne
offi
##arega
##late
offic
##cci
##ilku
respec
##aamn
bilk
##ilkul
##ijiye
##amare
bilku
##feren
##ward
##anks
##iev
saamn
dow
##nders
##eon
arr
fig
##umbe
##dal
deng
dif
waj
##arab
##icat
##ible
##adt
##ngh
##hea
##ptio
##aamne
##ption
achh
electi
bul
##aab
##ky
##cid
mada
electio
##anga
##elh
##sib
##pat
##tag
##atur
##ratio
##run
##ration
##tice
##umber
zyad
##dom
##gah
##tron
##ecu
##lhi
##tak
numb
##esa
delh
##elhi
inv
##elin
##onth
##essio
seas
##ession
##nate
##stio
##stion
##dus
##usti
mont
##gw
##lut
##halt
##umne
poin
##self
##oup
##ayegi
##mir
##rof
##estio
##estion
nar
##meo
##hila
##athe
seaso
##ande
##ishan
jaay
##hali
##ader
##shmi
cric
##ashm
##aali
##anan
numbe
##ricke
##hup
##cer
##amb
##hec
##anti
##trol
crick
##cep
##ricket
thoug
##uall
cricke
##asand
##agah
clo
ow
##chn
##gwa
##ually
##aud
##akhi
##avo
pasan
##ngle
##gha
##hro
##inu
somet
##efe
##omin
##sts
nic
##heck
##inist
##inat
##ndus
##sod
##lr
##jah
##ype
##tely
##deg
##hats
##ties
##sly
##ehte
##onv
chec
##isod
##ilm
##uf
##ensi
coll
shr
##hho
perf
##lower
zindag
##ctua
##cept
##lls
karw
##owl
cour
stro
##ows
##cide
##sode
##lear
##isode
##eriou
##nci
##erious
##appe
##ollowe
epis
##orta
##rsta
##riti
##huti
bri
jaru
##piso
##pisod
##ersta
followe
##pisode
episo
episod
##leb
##erve
##kers
##bil
##cess
spo
##ctual
serio
##ton
##ashmi
##hose
##erat
##nam
##pta
##raf
##erie
##rip
seriou
##orit
wher
##haan
##hanks
ghu
brea
##eone
##enta
##spi
##ahl
##ntin
##aag
##omeo
##add
##jec
##nno
##ieve
##uran
##20
##lations
##aldi
##ject
##vic
##olle
aapn
gove
##hahe
##tac
goin
##mor
cro
##utio
##ody
gover
##onn
shay
##heek
##unk
##igg
##vern
##hc
##sul
ob
##ekhna
##trong
##ositi
##ution
##tera
##akha
##meon
scr
##gati
conv
##omeon
##meone
##olne
##omeone
someo
someon
kard
##agw
stron
##acch
##agwa
##ervi
##derst
##nderst
pahl
##aman
##peci
##upe
##ought
jes
wro
cele
pich
##jha
##ajah
##eleb
##ule
##umm
##eeb
##eade
##ift
##ense
##nsta
##uesti
##alla
##overn
chalt
##umk
##itni
govern
phon
##oud
##pon
vac
hos
##ationa
##iat
##hra
##aiya
##sur
##issi
##ational
##hadi
##anna
shaa
##nger
##isc
##abko
aayeg
##sting
##heng
##gge
##ific
##hoi
##arch
##sult
pow
##mhari
##mon
##olna
##nner
soci
##raj
##etw
##ild
##hart
##natio
##nation
grou
##hann
##aiye
##ching
##ken
##oki
##oct
duk
##ontr
figh
##udd
##aroo
##sw
##eali
##heez
##by
khil
##kd
##hani
##uestio
##uestion
##utiy
##mas
##aji
questi
questio
##inin
##eader
##sil
##moti
hol
##untry
##ountry
##gic
doct
##riy
##stand
##dta
keht
##gree
##lor
##hav
##ungi
##llower
##rid
actu
##ollower
##atiy
##omple
lak
##tani
##sona
##akka
##roun
##nou
##hout
actua
waq
##round
##ream
contr
##otio
##otion
##api
##octo
##cul
##kaa
##octor
##come
##romo
##nfo
##mko
##orni
docto
##bt
##aari
##atiya
##east
##ndl
reli
gad
##efo
##hutiy
favo
##evi
##ping
##nsaa
nigh
reco
chutiy
##ndra
##ushi
##gaya
##rag
##its
##ret
##ining
##uct
##adam
##cie
##efor
##pres
##iwal
##eate
##rba
powe
##hile
##umhari
##khta
morn
##ssed
##hch
##hate
##ekar
##eq
##chan
bhaiy
comple
##sal
##anat
morni
##nli
##ots
doi
##pas
##ethi
##ornin
##kw
insaa
chann
mornin
##ffere
##rsi
##orning
##agal
##urse
##nnel
##cord
unders
##dersta
##ndersta
##usly
##ousl
##ously
sayi
##aker
sayin
##aana
##van
underst
##tten
##rove
##was
##oney
##lou
##ishant
##rstan
##rstand
##erstan
##erstand
##derstan
##derstand
##nderstan
##nderstand
choi
##ott
##arget
targ
##wing
targe
##bad
wron
##cted
deci
chho
##nity
##azar
minis
##gio
##pac
##zz
##gno
##ogy
##icia
##nten
minist
##etti
##lee
##eda
##leng
##harab
##hoic
##hoice
choic
##tab
waal
gus
##arma
##chha
##iyo
hames
padt
##cis
##indi
##mhara
##ando
doin
##ryo
colle
##ahte
##ml
##ahle
##rsona
##ersona
##urit
##etr
##utiya
##sue
##los
##fec
##irat
reac
##elati
ide
##ava
##alta
##aln
vira
##oro
##rme
##arri
##elie
##ssin
##fect
##hatiy
##hatiya
##aheg
##atao
##ino
##atay
##haram
ghati
##ior
shaya
##aah
##atan
##fl
wap
ign
##esn
prop
##fen
##iness
##sis
##fice
##rod
##iche
cen
##waa
##ince
##iffe
##owers
ghatiy
shur
##uden
##rnm
##este
##umko
##hutiya
##hanne
##ims
igno
##rnme
##oesn
##henge
##ryon
##ahara
##arth
##rnmen
##rnment
##ettin
##ryone
##usin
##aaa
##ernm
##ernme
##ernmen
##ernment
##ssue
##itin
##iffer
##vernm
##vernme
##overnm
##overnme
##vernmen
##vernment
##overnmen
##overnment
lev
##imag
governm
governme
governmen
alr
##plet
isla
##eryo
##annel
##jay
##elt
##veryo
##eryon
##veryon
##eryone
##veryone
everyo
everyon
##nio
##elig
relati
##hum
##ctur
##ebr
spec
##etting
##hagw
##hannel
##hagwa
##nho
##udent
channe
bhagw
##bra
##ndhi
##pecia
##ecial
##pecial
##gnor
diffe
differ
##efu
##ivat
##tuden
##tudent
stude
ignor
studen
##huru
##oja
##hie
##ier
reas
##iri
##nak
##alan
##hw
leade
##ees
##stor
##mplet
trai
##sonal
##omplet
##arni
##khan
##usre
##slam
##ingh
##iffere
##kwa
##jab
##fferen
##ifferen
##ltu
##epo
##hers
issu
reaso
sav
##pd
##eres
##iter
##lish
##adhe
##plo
##ilega
##amesh
reg
##ewa
##dv
differe
##hodi
##sibl
differen
##iha
##mina
impo
##nted
##equ
##aleg
##sar
##rra
##fore
##yda
##ivin
##aaki
##umhara
##iting
##lue
##nnin
##pir
rev
##thou
rehn
##erna
##nning
##ewe
##uit
reali
##idha
##efore
inh
##dan
##esu
##aadi
jawa
understa
leve
lgt
##iga
##pit
sce
##ular
wes
bef
thos
##rsonal
##niste
##ersonal
banan
##nister
##olog
##iniste
##dij
neg
##ands
##inister
scen
##ntl
understan
##haar
##ube
##yl
##tuall
##ssing
##tually
##ende
##diji
##motio
##motion
##halo
##nsaan
##oba
##wab
##ums
##plete
##adeg
naz
##udg
##22
##ppen
##may
##lve
complet
##mplete
kes
##omplete
##eem
##apta
##vit
##ppi
##ligi
##cent
##tere
##lenge
rul
##rant
samn
##cture
loc
##appen
prov
##iousl
##iously
##afa
happe
##ctl
##ctly
##ashi
ministe
cent
stre
##ctive
##odij
hamesh
modij
##meth
##unda
##odiji
##ulati
##kil
##roor
##dir
##methi
##echa
##uman
##yuk
##oar
##aale
##lop
##ikht
##sma
##lth
befo
##rote
befor
##lowers
##arb
##ahab
##ather
##date
crea
##amesha
##aisi
##imes
##ident
##ingl
##rman
##eau
##dega
yh
##roll
##rust
##nic
##cit
##lre
##rva
##onsi
##lain
coul
##tia
disc
yout
##ekhne
##uje
##lus
##tatio
##inne
##pal
##het
##sible
##tation
##aug
prot
##qt
##oub
##lace
##aper
##itho
capta
##erc
##eling
##ready
alre
##ptai
##ncy
##aptai
##lrea
##ptain
##aptain
##lread
##lready
captai
alrea
alread
##hayad
##aqt
##ethin
##pee
##mpe
##pose
paga
matte
##ntro
##epe
##ctin
##irec
padeg
##onc
vic
##ox
hom
##nsan
##cting
##eath
##adta
##twe
actio
##stani
##nali
mone
##asha
##ometh
##andhi
##methin
##hele
##umare
##tors
##gest
##urr
someth
##ething
##uz
##tche
##omethi
##omethin
##ouse
somethi
somethin
kyuk
##ibe
##eeli
##cene
##naya
##mething
##ncl
##omething
speci
##aata
##cts
##tici
##rki
##yuki
##igio
##lki
##list
ism
dese
##dka
##not
##amo
wea
##__
##reen
##twee
##rime
##amm
##ahul
##bat
##ooo
##usa
justi
##aroor
bacc
beli
##llowers
##tlb
##ital
##ollowers
opp
colo
##etwe
##egat
##hine
##etwee
##eligi
##haiya
##eah
relig
##pli
bacch
##etin
##rav
religi
##apki
##ligio
##eligio
##asti
##serve
religio
##isn
##olta
deser
##ener
dep
##mpor
##anis
##arac
##uda
ext
##nfi
##haleg
##aje
##rly
thro
##eu
corr
##irect
##maz
gandh
##isne
##lleg
##dol
##aida
##hap
##kay
atte
##ithou
##uat
##thout
##iln
##ithout
witho
##els
withou
##nore
##riva
##tica
chaleg
cur
##ctuall
##hahah
##eting
##iving
##ryt
##stra
##hings
##ctually
##ustr
##enin
##yers
##lent
##rif
##arh
##ants
##ging
##vati
##press
##egati
##lad
##epa
##spo
##udge
##othi
##ekhe
##liev
##adm
##eliev
##eelin
##amay
##dly
##nshi
##mmi
actuall
##tf
belie
mahar
##ndir
deserv
##agar
##eeling
##azi
##hill
##pend
defe
##haye
##indus
##shal
##ohl
mahara
##sten
##tenti
joi
##rted
##owi
##lebr
##ardi
##eryt
##veryt
##ening
##elebr
##nkh
everyt
##ddi
kohl
celebr
##ffice
##esse
raheg
##sted
##arak
##ohli
##gnore
feeli
feelin
##ilta
##ccin
##uper
##inner
##ocia
##ethe
dre
##ced
##ulatio
##ords
##ulation
##akes
typ
##rura
##pic
##yb
##rurat
##aint
##renc
##yed
calle
##iewe
##rtan
##ares
##arura
##evo
##arurat
##ems
##ewer
##ered
##kel
##adl
##ourn
##rror
##isten
##owin
##15
##alled
##idar
##hushi
winn
mul
##alega
adm
eas
##rmy
##ahahah
##rdo
##eko
##itc
##sg
##aks
##alki
##amin
##lege
miln
##owing
##ekhi
resu
prote
##arun
##ryi
cli
##ryin
##loo
##nlin
##oora
##aris
##mjha
##rying
posi
##nline
##ited
engl
##rsa
##ppr
##ersi
##gwan
##ourse
##rmi
##unj
##mun
##ards
##eav
supe
##arin
sidh
##edic
##hought
##njo
##apas
##acci
##istani
aud
##aci
##gue
##ahta
##njab
onli
##cht
##eserve
##accin
batay
##elli
onlin
##endi
##iewer
##hwa
teac
posit
##ithe
positi
##ivers
##oca
chr
##hina
##redi
##elatio
##elation
##efi
##lio
##wp
doub
jok
##yal
##mmu
##ches
##ressi
##oof
##nall
##land
hous
##hp
##haad
##opi
##bba
##tma
##val
##cur
ze
cra
##hau
##fica
baak
##rade
##othin
##ogic
##pm
##isto
spi
##othing
serv
##joy
##itie
##rall
##unja
##tics
##erin
##chc
creat
##ths
##ilit
##ities
##onve
##awab
##khay
##sine
##akar
##ingle
##woo
##ians
vacc
viewe
##chch
##nhon
fore
repo
##ayers
##eela
##odu
##eaut
beaut
##thy
##ryan
##tical
##ealt
##asta
##usha
usm
beha
##pse
##xpec
##ttl
##xpect
##udh
##forma
##idd
##nera
believ
relatio
##gla
##wor
##siv
punj
pape
##uar
##rtin
smj
##ewp
gene
##vice
flo
punja
ghan
##agwan
hisa
enj
##anu
##cel
##adn
##haiye
##unjab
luc
##njoy
##bin
##ksha
##lieve
##elieve
##nally
##ones
enjo
##pace
##wood
##nty
vacci
##mport
vaccin
##ntra
##nny
##epor
##ogay
##rap
##eport
##oph
##rig
##ased
##alth
bhoo
##hole
##ives
##sive
##olly
##otes
##cks
##ifica
##esul
##cher
##wle
##ndom
resul
##kan
##esult
##apka
impor
spac
##yst
##fit
##isse
##sap
##dne
##ature
##agay
karl
##resh
##ttle
noth
kida
##ahen
audi
##awal
nothi
diw
nothin
##umse
kutt
hyp
diwa
##tub
ord
hogay
swe
##ecte
baho
##ewers
nega
##yunk
##uns
##ntly
##iewers
##gion
##isio
##rket
##wali
##kn
##ped
##ision
kyunk
negat
##arket
##vate
##essa
##grat
##ealth
##gativ
##ikl
##rei
##halega
##vert
##ected
##unki
terr
repor
##hris
##isko
##ado
##iu
##ngli
##etro
##adega
##icati
ron
##b1
negati
##eque
##stant
##rand
##hma
##mos
##hao
##tme
##egativ
negativ
chaiy
kisk
##ocu
##022
conve
##okin
##vou
##roug
##rough
##ourt
##ppin
##orte
conc
##ayd
##ekhte
chri
##ampa
##nhone
##ntere
##aati
##adal
mtl
##diti
##rfo
##dea
rele
##olut
##owle
##ump
expec
##rting
##aps
##rish
##nyt
##oking
##akers
##ades
##mou
##nco
##nsu
##istor
direc
##hagwan
##mic
##ering
##rfor
##orc
##onfi
##plai
##hts
##plain
secu
##mpar
##cate
##oks
##hakt
##auk
specia
anyt
##porta
edi
hist
##icatio
##ication
##erest
##dna
wri
##augh
##roup
trol
##niv
naza
##ghts
##roge
##ikhay
##tmen
idh
##xper
##rama
ame
##uv
##titu
##ngra
bb1
##ocial
singl
histo
##tom
##fes
##ged
##ryth
##yunki
socia
tur
##roj
##andom
##entl
##aog
##oming
agre
##zat
##yam
kil
histor
appr
##utub
exper
##ngu
imag
##sag
##eju
##rythi
##rythin
##rything
##rung
##eche
##ivate
##ntal
##outu
##ofi
##erfo
##eryth
##veryth
##tei
##rese
##icti
##hall
##xac
##efen
##tube
everyth
##pur
##uo
##yr
##mpan
##verythi
##erythi
gener
##verythin
##erythin
exac
##verything
##erything
##tment
everythi
everythin
zaro
youtu
##eig
##xact
acce
##imp
##outub
##utube
##outube
##outh
youtub
cit
defen
mant
##erfor
##org
##lse
##pri
##itua
##ahot
##sab
##alen
##trat
##abb
requ
##hanc
##rform
##erform
##mporta
##ttac
ski
##akw
##hrist
##arsh
##olen
##cki
##amee
##nsio
gett
##akwa
##alist
##eache
##obi
##nsion
##endin
##arda
##auti
importa
##asht
##ortan
##utur
##mati
##tentio
##ending
##portan
##yat
##mportan
##fed
##ecom
##dio
writ
##tage
##kistani
gon
##hahaha
atten
##nw
##thers
perfo
##akistani
##hakk
getti
gettin
##huka
##reate
##sro
importan
##lc
##time
##ental
##rtu
##tifi
##mem
##avin
bakw
##dre
kap
bakwa
##nkin
##mai
##yc
##ratu
dri
##ompan
##ywo
perfor
##enera
##tention
##pita
##ety
##amjha
##ocha
##arba
##stem
orde
##ossi
##cond
##pare
##anka
sinc
##pul
##eeti
##lyw
cham
jayeng
attac
##dust
##imm
##riya
##itiv
##alli
##cem
dram
ste
##halta
##mmy
##ishe
tumn
##aby
##ywoo
##ywood
##than
##vio
##lywo
##orat
##50
reme
##ndust
##llyw
##lywoo
##lywood
##agan
##teres
##mand
##erall
##nteres
##llywo
##llywoo
##llywood
##itch
##ntes
##uali
##riousl
##view
##riously
##ollyw
##desh
genera
##istr
compan
##ollywo
##nb
##yn
##ollywoo
##ollywood
##rodu
##avou
##vour
##nive
jhoo
##oduc
##ahega
##ctions
##roduc
##oman
##arent
##aant
##kla
futu
##ngrat
futur
##terest
##nterest
##afed
##ensio
##ension
##ente
##lion
##aaz
##sat
##udie
##avour
##eriousl
##eriously
shuk
##ony
##ntent
##oye
emot
kisa
##ello
##iq
##mmun
unf
seriousl
##niver
##ppl
##tiva
plac
##nivers
##fin
##fg
##das
##nking
##inki
##bke
##agin
##nane
swa
##ahahaha
##esta
##fy
pea
tol
##ehne
##rmal
##pro
##uture
confi
##nship
emoti
##sses
##emem
##unch
##lik
##lg
evi
##adin
##gya
##jr
##illa
##itera
##ngin
##assi
akel
##ncer
##memb
##cked
##vatio
##vation
spee
##iwali
diwal
##rofi
intere
##ficat
##llio
##ememb
##elea
interes
sawa
##ificat
remem
rememb
##rev
judg
##ntri
emotio
##dda
##acte
tic
##ongra
##eleas
relea
##np
profi
##membe
##member
##aara
rohi
releas
##ooks
##ongrat
##hori
congra
##rlo
##econ
congrat
##uta
##ucc
##haadi
shaad
##emembe
##emember
##anaya
coo
kehn
##sapp
remembe
##tabl
##aras
thre
##tein
##arog
##iyan
##llion
##araf
##orts
##rence
##sure
##eva
##bah
##yaan
##hance
afg
##lke
##once
##xe
##roud
##ustic
##ooki
##aving
##ntest
##dents
kons
##peri
##onse
##nyth
##jat
##anj
##ohit
prou
anyth
##tral
##erta
##esen
##oste
##bal
##ckin
##vil
##ige
clos
##alon
##urna
##boo
##ontes
##ecor
##nythi
##eete
##nythin
anythi
anythin
##nything
cru
##nion
##illio
##illion
##eter
##ecur
##pons
div
rese
##ority
acto
##ussa
healt
##akhn
##rug
##rdin
##ontest
##oori
contes
##oron
##fra
##ompar
##ntern
##aafi
##sent
##ator
##llu
##yste
##hhe
##racti
##ormal
visi
dikht
##espo
favou
##ontro
##unit
compar
##lkin
##cking
chanc
##adka
jink
##eact
##opp
intern
boll
##resen
alo
##edo
##mments
##omments
inve
##amara
rish
##spon
##eeche
##ymp
##araj
##ppos
##erenc
##oje
##nya
hoj
fra
khay
##sf
##pital
##espon
##kari
beco
##hla
##ouri
##nces
##aring
##vent
##rans
##alkin
##hiv
##igion
##eries
##ligion
##eligion
contro
##gti
mur
##luti
##tru
kaf
##pda
trus
rakhn
tran
##echar
jou
##erse
##ede
lig
##ient
##ferenc
##stl
##stice
##ipa
bles
##ehr
##cula
##ifu
##upa
##arde
##cas
##ips
##ustice
##eans
##ched
##ocr
aun
liter
##jee
##lose
##zza
##endr
awar
##arts
dung
##lutio
##lution
##rang
##iate
##econd
##actl
##ading
##erence
##rally
##uts
##aur
##actly
##denc
##xactl
unc
exactl
##xactly
##iful
##iliy
##andir
seco
##llege
##rica
##ille
##ogr
##sitiv
##naa
##olv
##elease
##oka
##stm
dij
##ias
conce
bolly
##qua
secon
##hop
##sage
##nvi
##bai
##gte
guss
##kle
##lking
##eauti
##uff
##utif
##qui
beauti
##tifu
##akho
##tiful
fou
##sili
##elet
onc
##ference
##ried
##ugg
##raa
##eft
##autif
##legi
##eautif
whil
beautif
##utifu
##utiful
##racte
##arly
##uca
##urd
akh
##alking
##eful
isil
litera
##ether
##spit
##cine
##teral
##osa
##adu
##roje
##orce
##ebra
##autifu
##autiful
##eautifu
##eautiful
##isin
##sines
##elations
proj
beautifu
##say
proje
##ojec
gue
##rojec
##oject
##roject
##reme
##inati
##ngla
##uja
##layi
projec
##porte
##aoge
##ssib
respo
poss
##rli
respon
##oved
##nyo
##erent
karog
##agr
##nver
sca
##nag
##law
laud
##pto
bollyw
##ookin
bollywo
##lot
##lip
##uati
bollywoo
##rack
##onde
##siness
##hahte
##layers
dele
##rle
##ecord
##osp
##pula
liste
##unny
recor
##omot
##kiy
##egr
##hse
##ndle
##iet
##anak
##cces
##ocke
##fs
##dien
##hok
##uin
phe
panc
##nar
##uil
##phy
whol
##ently
##jar
##lde
mumm
##romot
##osti
##laa
##ooking
##aster
##oment
promot
##brat
norm
##ists
##nut
##sol
##iliye
##ssag
##eln
##dw
ghant
lef
auk
##gges
##amari
##ggest
##ccess
##abu
busi
##aani
##swe
##acy
##isti
##rice
auka
opt
##nded
##reed
##usine
##gine
zaroo
##rik
##jhs
##rtic
##cter
##ques
serie
##tric
##usines
##nec
phl
##ossib
busin
##dence
##hcha
busine
busines
tumk
##gram
##duct
mome
##tivi
##vest
momen
nationa
##usiness
##ully
##siliy
##fri
##ider
##story
ligh
##siliye
##bus
journ
##rona
cov
##sra
moha
##nfor
##vis
##sitio
##jhse
activ
##sition
teache
gues
wome
##tana
##ongs
##urre
upd
##ommu
##idhar
##hrou
##oya
##aude
khal
##tv
##lid
ente
##ssage
##nyon
##ikhn
##jn
##hroug
##ury
##hrough
prim
sush
aunt
##pdat
##heln
##ify
##istory
##mpi
upda
updat
ido
##abke
##aly
##tack
##endra
##unty
delet
##sam
##fend
##ushan
pric
anyo
##acter
##onsh
##nyone
##issio
anyon
##ission
utn
scre
##erg
##rha
marn
commu
##onshi
##ionsh
smi
##acher
##tir
##ionshi
prod
##erro
##tchi
##onship
##ionship
##nish
##harac
##rior
atl
sco
##rren
##tto
##layin
##itive
##muni
isili
##laying
##olleg
colleg
##enu
##aract
tums
##reas
##ommun
##taye
##hair
##ferent
##tchin
##aeg
maki
##admi
petr
##oshi
ayeg
##peak
##ujhs
throu
throug
##pdate
##onver
##ngal
##tific
##onst
##duca
sig
##racter
conver
##aracte
##aracter
##eacher
##haract
##roph
##haracte
##haracter
##tching
charac
##hpa
##andl
##atm
kashm
charact
characte
##haraj
##uatio
##agat
##uation
##aharaj
adh
##dde
##geg
paren
##minat
##ollege
##fferent
##ucat
##ifferent
##fort
commun
##atei
opti
##aray
petro
foc
##estin
##ujhse
##usy
aro
##elete
##hhod
dece
##erally
##ccep
##ocus
##ccept
##tee
##hmir
##nsw
##shmir
##ashmir
##harma
##lebra
norma
##elebra
celebra
kashmi
wors
##nana
##ducat
musi
danc
ef
##onti
##akhe
##ebrat
##igge
##dienc
##nves
##elebrat
##lebrat
##olve
celebrat
##rush
##dience
##fici
aks
focu
bhak
##nvest
##ttack
##urin
##tul
##but
dhy
##akht
produ
##ummy
##mmuni
isiliy
produc
##ssibl
##posi
##udien
pha
##udienc
##koo
menti
##isht
##udience
audie
dhya
##rpo
inves
audien
audienc
##nswe
##ystem
##dica
##kri
##tudents
##udents
##swer
##nswer
justic
##alte
##atein
##rnal
##actio
##ikhan
##imin
##action
##etrol
##aung
##gne
##impl
##orth
##atche
answ
##manc
idha
answe
##orona
##uke
minu
##owa
##hakka
##can
##rter
hma
cond
##rshi
##ellin
##hish
eff
terro
##itics
##rtant
asl
##glis
leav
##gna
jhu
##elling
##altu
##ayda
##error
barb
##ortant
##nglis
##portant
winne
##mportant
univ
##kwas
##upt
##aii
edu
##lack
priva
##tty
maga
##ositio
##osition
##noth
spea
badl
##rope
##glish
##nglish
fel
##don
##ligh
mentio
accep
##nothe
leng
atle
anot
##ghan
##uring
##nother
anoth
leka
anothe
##light
##ossibl
##eria
##essed
##sik
##shin
aadm
##terna
##ankh
##itici
##shw
ec
##tlea
##mance
##isab
coro
atlea
##eds
sud
canc
##eman
unive
univer
##arung
##least
##tleas
##adesh
##tleast
##eave
blac
univers
##ntu
##onne
atleas
##viou
##call
coron
##ights
##mel
##iall
##urren
deb
##usro
##ourna
##ubah
##rath
thor
##ayed
##ushant
##iteral
##sb
##nite
dikhay
##oper
kos
##olor
##oose
##opy
##table
##path
##quest
kbh
##rut
##tionsh
##handi
##aroge
##tionshi
##uu
wapa
##tionship
succ
##ationsh
##ationshi
forg
##kkar
##ationship
##lationsh
##lationshi
##elationsh
lam
##elationshi
##pid
##hahta
##lationship
##inatio
relationsh
##elationship
relationshi
##ination
educ
##ww
educa
##oce
##hid
##ially
##ucce
##eques
##haro
becom
##oris
##xpl
##pany
offe
##uw
##rsel
##inte
engli
englis
##odh
talki
##mpr
##amen
fuc
##nnec
##tun
susha
plu
##ahn
##terall
sushan
##akkar
##ditio
fara
##tall
##xtr
##rtai
##nsp
##aalo
##equest
servi
##diy
reque
##dition
kheln
mehn
reques
##mpany
##zaa
talkin
##odo
##ompany
##rz
##kas
##roth
##aksh
##versi
##erti
##work
##esent
educat
##ubh
##apis
##zo
##anane
##yes
##lawa
##angu
##rtain
expl
##vor
sys
##uji
##nalis
emp
chea
##mei
##scu
##ihar
##andle
##poi
succe
##omes
rol
brot
##fgh
extr
broth
jarura
##teg
##nting
afgh
##uye
hmar
##ysi
##rothe
sap
##enda
##resent
##fgha
syst
##rents
##fess
##fghan
afgha
##ntrol
brothe
##ontrol
##ssible
##isan
##atchi
##inkin
##inut
##dke
##atchin
##raha
##rother
##atching
##haka
barba
##ajo
syste
fay
##regi
##bili
##rori
swee
##rks
##reci
##rana
##acke
##icha
##inking
##spons
##jan
##ird
##ertai
pict
##eef
##unity
##espons
##ertain
##ivit
##rage
diji
##earn
##usic
cance
##eles
##ictu
##14
optio
##aini
##ictur
falt
##arents
messa
qual
##niti
##ipt
pares
pictu
pictur
##elle
##essag
##enga
##edit
messag
##adhi
fand
##ures
dro
##olitics
##litics
##rding
##ybe
##tifica
##ppa
##fus
##tivit
##icture
##achin
##agn
bod
##sitive
minut
##taa
stra
##arra
##yak
##terally
##arv
##abad
##nute
##tend
##iterall
##iterally
##inute
drea
khad
##liz
literall
simpl
##ads
##ositiv
##rnat
positiv
##gative
##taya
##urus
trea
##irc
uns
##ossible
##tey
##akwas
##hiya
pand
##aang
##ross
lear
##jor
##ibi
##eba
##rive
##tificat
fando
##yy
##atti
##baa
##wh
dijiy
##xperi
##nee
##zin
##nom
##uha
kij
##essage
##harg
##chhe
##resha
##eati
##dul
##19
##ehti
##ortu
##sig
##ecr
##net
##sd
##ctors
##egative
##snt
##ounc
##tula
sym
##abba
rashm
##rash
##mad
##utte
##rfe
quali
##ranc
##asy
marri
experi
##rls
##rup
##waz
risht
##pet
##hree
##tsa
respons
playi
playin
wast
##heat
##ommuni
##rj
##cree
##hni
##vide
deve
papp
blam
##rga
handl
zaru
##bit
##fie
##asn
##ucces
##atel
##inge
bic
##idenc
##ril
##pera
##velo
##ahee
##rore
chakk
##uen
bechar
##rvic
##etu
##eless
##cally
##ervic
##liv
##atul
communi
##aaj
##nsid
##nage
##heh
##nday
cau
##ester
##shk
##ustra
##b15
##tea
##olk
smil
##eso
##creen
tens
##aheng
##dhart
##bri
trop
##elop
##rmer
##rmat
appl
##miss
fli
agen
##ontin
##arli
##appi
##ecid
##orti
##ohat
##gua
##uccess
##rivat
dikhan
##oleg
##vouri
##shing
##nside
##aina
servic
##stry
aes
##aft
##atha
##bki
##avouri
favouri
##rvice
ticke
##ervice
##velop
##sth
##ophy
##lane
##nia
##elec
##iske
##ndit
##iii
##eno
##sati
comi
##usta
ult
succes
opi
rece
##posit
##edg
##aming
##tulat
cred
trad
##ikhe
##mein
##icall
##irls
amaz
##ically
##urp
##kad
##atula
##aul
##cip
qa
decid
##ratul
##shed
##isit
##rship
##ratula
##entr
##gratu
##atulat
##ratulat
##gratul
##ngratu
##ongratu
##gratula
##gratulat
##ility
##ngratul
##ongratul
##ngratula
##ongratula
##ngratulat
##ongratulat
curr
##0000
##itat
congratu
congratul
##tec
congratula
congratulat
##irm
##opu
aut
hok
##hhh
##ared
##jaye
##inio
##harth
##gend
##idence
##oard
##rrori
##ageg
opin
##atak
menta
##testa
karung
##estan
prese
##inion
##pc
bhaa
##hru
##errori
##reeb
##ccine
terrori
privat
##accine
##omb
boha
##itica
##evelo
##aile
##evelop
##estant
##testan
oppos
##roris
tryi
##testant
tryin
##shu
##dharth
##lari
deat
##atri
##ntesta
##ontesta
##rroris
contesta
##ayb
##car
##loa
##itical
peec
peech
##otin
##tres
##erroris
##clu
##ntestan
##asm
##ontestan
##ntestant
##ontestant
contestan
terroris
##ciat
##pini
zo
##erd
##tist
troph
##ecis
boleg
lim
opini
nall
##ourit
##ocht
##avourit
##vourit
##nata
favourit
##amer
##earc
jun
##lute
##aiti
##0k
allo
cror
##arted
##iba
##nista
##earch
##mpat
##ardo
##crea
##haw
devel
lageg
develo
##erva
##bilit
##ecide
kiji
##hman
hosp
##oting
##icial
##agti
##cky
##opul
##nsti
##ised
##tuat
##ospi
eno
anno
##oget
conti
##spita
hospi
##stly
##ospit
##ospita
##anist
##isik
peac
##spital
hospit
##ospital
hospita
eac
##cisi
tota
##ordi
##edge
##uli
##ffici
##pte
kisik
##eya
##ript
##rself
##aila
##pinio
##ppu
##ciall
opinio
##cially
##scr
##onten
##xce
##shta
##crip
##otal
##pinion
possi
credi
const
possib
exce
##ahy
##cien
##urc
##oyi
samb
##nistan
##asu
##anag
##mbh
##vem
scree
##opula
##anista
##ubs
watchi
watchin
bih
kad
cer
##ils
##tinu
##wat
##anistan
##cript
hus
conten
##inate
##noo
forc
##geth
##ecto
##alne
##dkiy
##efin
##gethe
##gether
##ened
kijiy
##bd
##ulations
##ined
1s
aank
biha
##ficia
##ledg
mahin
##helt
##init
##vity
##eshan
##esid
##isaa
##bers
crim
##ogeth
##ogethe
##ogether
##nest
##zing
##ppre
##cular
##rek
ramp
##pper
presen
##ldn
##ahenge
##mmat
##ilen
##teme
nare
##efend
##ddh
##reve
##aresh
##raz
##wed
##urite
##rial
##nie
##tuati
##ourite
##avourite
##vourite
##hild
##perat
mali
##nfu
##hme
##epar
##tire
##rendr
##dow
##rel
tog
##ahat
##temen
##qa
##tement
##shis
gadh
contin
zam
##tuatio
##epr
##ttent
##see
##angi
##sign
rkh
##tuation
##arya
popu
##mbi
##hac
##logy
##oog
defi
arou
tensi
popul
situ
brin
##bod
tensio
##iscu
blu
##eace
##rendra
##missi
##oves
##ahaa
aroun
##unde
##ealit
##vera
##mmo
aza
##ecisi
sil
##tulati
##hinki
wif
##lous
##laya
##ttenti
attent
##appu
##eside
dail
situa
attenti
##atulati
##wled
##ratulati
##gratulati
##ngratulati
##cra
##ongratulati
sund
##ncr
##hinkin
congratulati
toge
##cing
neel
cul
##rkin
##rein
##owled
toget
togeth
##hinking
togethe
##stma
##noug
##nough
kaaf
enou
enoug
##areeb
paresh
##live
##ilo
##wad
##harge
##ituat
##anana
decis
##iot
##gur
##ovid
##satio
##alay
##oubl
##sation
##ledge
##andar
tec
popula
##aily
##ficial
naren
##arend
##mpla
##ttentio
##ttention
disa
situat
attentio
##opa
##bara
##umari
##ecome
##ordin
##tulatio
##tulation
##aitin
##onna
narend
##uldn
##eeds
naf
##ouldn
##aiting
aksh
##chna
##atulatio
##atulation
##ratulatio
##ratulation
##roc
##gratulatio
##gratulation
##ngratulatio
##ngratulation
##ongratulatio
##ongratulation
##erfe
realit
##neg
##stri
mart
congratulatio
##umara
##ghte
sle
alon
##ogaya
##load
decisi
##ilte
##ffec
##ector
##ffect
##aybe
##inde
voi
##rking
##eality
##tmas
##rophy
##star
bhal
##dhan
##aresha
##tweet
##ogra
paresha
symp
##ivity
##ports
##nab
##ruc
##ituati
wic
##ituatio
situati
situatio
##ituation
##ooc
##khiy
##ikhta
##hog
crus
##cisio
##orre
##cision
agl
##ooch
##stmas
##fir
##ncel
##uble
##etai
##olti
##istm
##etweet
##jj
##khti
##fini
##missio
##mission
##adkiy
mayb
retw
##vies
##ament
##osr
##arendr
ladkiy
retwe
retwee
prope
##istma
##ristm
##istmas
curre
##rvat
##ristma
##dnt
##ristmas
##hristm
narendr
curren
##lame
##lims
##ecisio
##tivity
##hristma
##ecision
##arendra
##hristmas
worr
christm
##daa
##___
##eels
christma
##ficati
##lum
##ersa
##ficatio
##fication
##ificati
comin
##roper
looki
##ificatio
##ification
lookin
##atta
##ngt
##xpo
##sea
sapn
##band
els
##hii
expo
##diya
##shwa
alm
##imb
##atsa
##yee
actin
##ouble
##ito
rampa
##ayan
##ovies
##nths
##afr
##atn
##bly
##gega
##erien
decisio
##magi
##perie
humn
##rienc
##xperie
manag
##imit
##arath
##tori
##mpt
##ntinu
##perien
##msel
##ontent
##ontinu
##xperien
##ology
dru
##sia
##anage
fla
##perienc
##erienc
##xperienc
##rrie
##put
##ushk
##riw
waiti
waitin
##riwa
##redit
inde
pac
##nue
##ressio
##lian
##hnat
##mlo
##antr
##obil
##ression
##iol
##unce
##agh
##ako
##slims
##neral
basi
##echn
##onths
khelt
##urity
##uslims
##ualit
##mg
continu
##hib
##erati
mobi
##mt
##ehav
experie
##iro
##idhart
##icate
mehna
##oop
##mpal
experien
##reshan
##afra
sidhar
##ubt
sidhart
defin
experienc
##jas
##agte
##ancel
##oac
##nowl
##ehnat
##orter
##nowle
##aders
##hach
mush
##alent
##ainin
##andin
##ounce
huw
##akhna
##aff
tari
##aining
bew
##frat
##ilw
nafr
##bey
##afrat
nafra
prac
##shish
##ampal
##ambh
##lana
possibl
##body
##wledg
##gem
##nowled
##nowledg
##owledg
##hade
##hein
##sica
##khat
##tarte
##agra
##eena
##ilwa
##usto
##cemb
batan
##rience
##ecem
##magin
driv
##hows
##umba
##asse
##tulations
loca
##atulations
##ratulations
##gratulations
##adna
##ongratulations
##ngratulations
##agu
##perience
##erience
##etty
##upi
##xperience
##ecemb
##mera
mobil
##idharth
raht
##onest
##rupt
##cembe
##olitica
##litica
##ecembe
##cember
##arle
##ecember
##olitical
##litical
saj
##uee
##anted
##bile
##mpath
conn
##ija
##esting
##alia
2n
##tect
##athy
##ikk
##finit
##hyam
socht
shya
##ofe
decem
fea
memb
decemb
##ibu
##dua
##ositive
chac
##rsha
gonn
##lmo
decembe
##mall
##nect
##orro
##hort
##laf
##nnect
##onnec
##mate
##ncre
##oach
##onnect
##ompe
##tanc
andh
membe
chach
##hyan
##inall
##tivat
##rave
##hind
##pene
##fai
##geme
##ween
##mlog
##wards
sunda
aff
vais
##inally
##hoon
##uess
##gemen
##soo
fayd
##wledge
##nowledge
##owledge
##gement
##spir
politica
##arme
##scri
##aku
##ulk
##ices
##inh
##sey
##10
##nows
##rtis
banat
##rivate
##sso
##nvo
##wis
##ller
##obile
##ilaf
starte
jaak
##nwa
##tup
##ghani
##hb
##adat
##akl
##roof
##arlo
##serva
##ruj
##empl
rakht
belo
sla
##alik
##naye
##ciden
behav
##nen
##porter
##ofit
##eekh
##rita
##ormat
##ubi
##imple
funn
od
##pressi
##udy
hones
##orin
##oduct
##roduct
##fghani
imagi
##nfa
##ruji
imagin
##angl
##uruj
##hoc
dhu
##rofit
##sity
##wai
kosh
guruj
##iska
##heer
##pathy
##ervat
##uruji
mujhs
mumb
##servat
##entu
##runga
##lco
##onom
##eadi
##rofe
##edica
sele
##lif
##lors
##gaye
##ired
##hakkar
##ncle
##meen
##amma
##hilaf
##fficia
##eeke
##ariy
##otic
##hika
##mers
##nem
sas
incr
##ajor
##long
##13
camer
majo
##nao
##aega
##ucti
##aithe
##ofes
##rofes
##rrec
##fficial
##dhn
conne
missi
loa
##llec
##munit
##orman
##orge
##mmunit
bigge
##lies
##uwa
##sical
##rrect
##oring
jea
millio
##llect
##ataye
##rofess
##ofess
##mile
##rian
##eneral
pooc
##elect
##nform
##ukr
##eld
##eeta
##ussi
##auka
##aregi
mumba
##oil
##tarted
##oshis
##eadin
##hki
##pposi
leas
##imaa
##khiye
##fid
slee
koshi
##mbai
deli
##ctic
##nai
achc
##urg
durin
##del
##leep
spr
opposi
##pping
voic
##eading
selec
##khaya
achch
##ocho
##cuss
##noon
##eee
##rever
haz
##iday
uncl
##set
##anding
##umbai
##sri
incre
exi
##uml
mudd
##arif
##athi
##tsap
connec
vik
##aanc
##nsib
##noc
##aanch
##gni
##atsap
corre
##ateg
quee
thinki
thinkin
##ising
##ouc
finall
trac
##ribu
aje
##hode
##erforma
##rforma
##rrow
##sor
##rgi
##ief
##forman
##ympa
##sho
performa
##icu
sympa
##handa
##ympat
##ympath
##adar
##nfus
sympat
sympath
##tally
##bility
##tp
##estr
proo
##dem
appre
##orrec
##stit
##rmanc
##dai
##ormanc
##yg
##erforman
##rforman
##ikar
##formanc
##rmance
##formance
##ormance
##erformanc
##rformanc
##erformance
##rformance
##orrect
##som
profe
##mpathy
##ypo
##onfu
performan
givi
givin
performanc
##mbha
##tsapp
##sman
##mc
##dsh
profes
##erne
##atsapp
##aake
##iqu
confu
maste
##shn
##hanis
##rfec
happi
##ording
##erfec
##ouch
##pporte
##lka
##yle
##azin
##ruri
##hain
offici
##erma
##pot
##rfect
##ueen
##erfect
bui
##upporte
##ender
lark
discu
##alna
##abo
##erate
officia
profess
##oxi
##icl
##onfus
confus
supporte
##erek
##ibut
##hatsa
##matio
##mation
##scus
whatsa
akhi
##mbers
##ngua
##oster
##upl
ajee
##epre
youn
wick
##apse
reve
##iscus
##amera
##stha
##pped
##earl
##onder
##too
##maan
##ebo
##nfe
##tya
brai
##uality
##oubt
##ectiv
discus
##nju
##solu
##ukl
##porti
##eacti
##oooo
##ested
##ribut
##hrea
##undr
##terv
##rali
##owed
perfe
ava
##orist
##mmed
##rrent
##solut
vict
caus
##nterv
##aim
econ
##noun
##jht
##upr
##pposit
##hada
langu
##olors
##etn
interv
##nyw
##chl
##mart
##ompla
##ecre
##uag
##ucati
##rru
##teri
##abki
sout
##arz
##oung
compla
##cono
##versa
##emin
sug
##heja
perfec
opposit
##siden
##iety
##hatsap
##anam
##curi
whatsap
##uto
##vious
##ooth
threa
##bka
##ners
##oshish
##scuss
##iscuss
##ondi
ric
##angua
##eetin
##nkar
##icul
##eeting
##huda
talen
##lak
##xpla
wicke
##habb
##shki
##mage
##uage
##ssur
##mpare
jisn
##nfid
##prec
##iversi
##ipp
##ducati
dhon
##ompare
expla
##gina
##tance
##utti
educati
##conom
##earts
##fide
##guag
##nguag
##esiden
##cordi
##guage
##aty
##nguage
##eap
##anguag
langua
##anguage
languag
##nclu
##aatei
##omed
##tead
##ecuri
##utes
centr
##avor
##ictio
##zzat
##cordin
##cording
##aao
##hama
##oluti
##iction
##aros
foun
##nfide
##aught
##akr
##sad
##tert
##ills
##olutio
##olution
##ucatio
##ucation
takin
##atre
##ataya
##ids
##turn
econo
##ikhat
##hatsapp
##ikes
##hka
econom
##peed
##gani
##onfid
##rsit
dema
bek
##ghanis
##nalist
##fghanis
afghanis
ume
##hanist
##umlo
valu
##curit
##ghanist
correc
##nim
##tches
##hanista
##fghanist
afghanist
##ghanista
##hanistan
coa
##ghanistan
##fghanista
##used
afghanista
medic
##fghanistan
##ushki
##iyat
prog
havi
##rorist
##hukl
##umlog
prad
##reer
##adhn
obs
##rday
##iles
##aayeg
##ecurit
supr
##rrorist
##ival
##ducatio
##ducation
##onfide
##iews
##wt
##pert
##vy
##aatein
##fessi
##ntert
##agl
##sba
educatio
##errorist
##ogl
##mplai
doubl
##ayak
##mplain
##fiden
##urrent
##hkil
##nfiden
##jeeb
##imba
##onfiden
##ambha
##ipl
##shkil
mushk
##omplai
##ushkil
##omplain
betw
##hamp
##pens
complai
izz
mushki
usin
wond
##ehan
##name
buil
##zak
##tween
##etween
##eaders
betwe
betwee
sambh
##enes
##areshan
wonde
##most
##anaye
unfo
##rogr
##eratio
##eration
##imma
##actic
##aig
##rotes
##ympathy
##stitu
##umen
izza
crit
##var
anyw
##kki
kisn
##xpos
##hom
himm
##rrup
khoo
##otest
eq
havin
##nounc
impr
##trea
##fessio
##fession
expos
revi
##munity
##hiz
compe
##lun
protes
##iyon
##ehli
##ersit
##rotest
##mmunity
bharo
##versit
limi
##ursel
##preci
##ikhaya
##rabl
##orev
##epen
##recia
##ernat
##precia
knowl
##oreve
##immat
##ront
##cam
##orever
##bbat
himma
knowle
pus
##imina
forev
##rres
##uce
##kaar
##xci
##pho
##egre
##liya
##habba
foreve
##hys
##efini
phy
##ahti
##fil
##rdas
##urnal
progr
##pers
##nste
##nterna
##aze
##rrupt
knowled
knowledg
##iel
##terta
infor
##iversit
##inta
interna
##nterta
##ntertai
##tertai
##ntertain
##tertain
##km
exci
sci
##ural
##lowi
##unte
entert
##dab
enterta
entertai
##ournal
##otec
equ
##xis
phel
journa
litt
##some
##cian
journal
##lowin
##anata
baatei
##lowing
sambha
##reko
##orie
##ukla
##atem
##allin
##mous
##nging
almo
##eciat
##pprec
##reciat
##ppreci
##preciat
##pprecia
##ereko
##ective
##bab
##iven
amb
##obar
apprec
##hegi
appreci
sbk
apprecia
##hke
##eigh
sist
boar
##arsha
cert
##dhu
##ommo
irr
pahu
##ctr
##toc
##tb
##ician
##erw
cove
##opic
##alling
gho
##hela
##ruth
##hysi
##ndon
##rvati
##gaa
##xpr
##ppreciat
siste
##shma
##hite
##egu
##pine
##ghe
##ddl
##achh
appreciat
##alf
phys
##cro
##sters
##agega
##nanc
##iza
quo
##hini
##ayo
rou
pakk
##ittl
##ites
##chay
beka
physi
##chcha
##rise
defini
##huke
##etur
##nspi
expr
##emand
##ternat
##efinit
##ortin
##ahun
##ases
retu
kreg
##eturn
bou
retur
suk
##oncer
##peni
##lib
##ittle
##dad
##orting
##onali
##rtun
##arib
##eend
##urde
kuma
##epend
##rotec
##hukla
##penin
##azing
##take
##pening
##rmati
shukl
neen
##vai
##hora
##sked
##fli
##hoge
##ateme
concer
##otect
##rotect
##atemen
outs
##atement
##ddin
##asth
##mmon
##mpet
##tatem
##rnati
##erce
##lated
reser
protec
##uple
reserv
##alog
##tateme
##nounce
##tatemen
##tatement
##strat
##etim
##trac
##oht
sna
secur
##99
fem
##xpre
##areer
##xpres
##ffo
##orki
##ogu
##jid
lagan
##arki
##oota
##inds
##inni
##loy
##sident
##ochn
##abbat
##adke
##eams
##rpr
##uga
##ortun
##rnali
##yme
visha
##oupl
expre
trut
expres
##aca
rac
##tress
##llen
##mazi
##ssiv
##ency
##agaya
##ogle
##ardas
##rable
spor
##ecul
##huc
goog
##xpress
##ilti
##eciall
##peciall
##ecially
gui
##pecially
##poin
##ssive
##ouple
definit
##tail
##edu
##lmos
##osto
##habbat
##osed
##oogl
##acho
##oob
##point
##rnalis
##curity
##lmost
##uis
##dies
##ples
statem
almos
##ecurity
##esident
##heen
googl
##xcit
stateme
##key
statemen
##etime
##urnali
##otiona
##otional
##nlo
##tali
##ompet
smal
##ournali
##urnalis
##ories
stri
deman
##ournalis
##ghi
##aneg
coupl
##full
##ultu
##cb
journali
##aon
##acche
##hly
##creas
journalis
##ltur
##uge
##epres
##ilna
##armer
##city
excit
##ssure
##mazin
##rmin
##mazing
##uty
amazi
amazin
##cident
##ervati
##ultur
##hoos
##bso
##orru
##servati
##hter
bangl
##urne
##haros
##orkin
##ects
##orrup
shre
unl
##sec
##ager
##yab
##orking
##indust
##ecula
bharos
##oorat
##rvie
##meed
##itha
nash
hindust
cus
##ocal
corru
corrup
littl
##trate
paanc
##shes
##lud
##ovin
##rsat
dimaa
##ervie
aske
##ilne
##aruri
##titi
##ejr
##orrupt
##rview
##upre
##ommunit
##nstit
communit
##onta
##oys
caree
##agg
##rovi
##tures
##hek
##nstitu
##asee
##otif
##niversi
##motiona
##motional
##far
alaw
##11
scri
##erview
##oogle
##tut
##niversit
universi
##maag
##orrow
##git
##imaag
supre
##appin
universit
murd
##pened
##prem
##rned
consi
##tial
##cite
glo
##onsa
##alou
##awan
##jk
##014
utt
##utr
imm
##abr
##emor
##arei
##sco
likhn
##ddle
indu
obse
##resi
##nr
##nspir
##ehla
##arha
##hanta
##tervi
ank
##ntervi
##tervie
##uprem
##ntervie
##ukat
##terview
##dusta
##nterview
suprem
##ison
intervi
##azak
##ernati
intervie
##ndusta
##ajn
##amou
##industa
##chie
plat
##ument
##rar
hindusta
##erl
##ahm
humk
##ico
mek
krd
commo
##xist
##omis
##rsity
##03
##elc
fath
##omina
##khk
##ahr
##kele
##khen
##ysic
farme
##xic
##icle
##hysic
##portin
##porting
##ommi
##nnou
scrip
##ntim
##vol
##nnoun
##mote
##nnounc
##eos
ven
natu
##itti
charg
##edh
##nus
migh
##iati
##ishal
##uno
ida
##ealo
##ternati
annou
##hq
announ
##alue
announc
t2
nad
##pressio
##pression
whit
gaan
##imat
##kets
physic
##ustan
##zam
##eric
##fferenc
commi
##ifferenc
##etit
##him
##fference
##ifference
##ampl
##umes
##mane
##atic
##allah
##ersity
##alous
##bj
##versity
natur
##erac
##khir
fathe
##aunga
##omer
guj
##meri
##sions
##dians
##elate
bia
cust
memo
##whe
abus
aaps
##cker
##bhal
##iler
grad
differenc
raji
##atana
##ealou
##ealous
##mise
lagat
##dustan
##ecen
##nav
##ndustan
##rane
##iversity
incl
##industan
##nso
##ploy
##ffor
##rmatio
##uot
##rmation
##araa
##abe
##akal
##nha
jind
##ample
rema
##abka
##hhi
##stro
##ahine
jeal
emotiona
jealo
jealou
##iag
bran
##rcha
beng
##ucha
##tyl
##etail
gil
ori
##ymen
##hlo
##ithi
##ntur
##core
gla
pract
##17
##ipu
arg
practi
##tract
##ccor
##pulat
##tos
##anw
mys
quot
##mani
##huch
##innin
##mbhal
##havi
##dee
patt
##tane
##inning
##isy
##eliv
##ccord
##bir
##ndly
##verse
dud
##ukaa
custo
##gd
##mbl
##kill
gyaa
criti
##lood
##engal
##dict
##ahil
##itut
inco
##pme
##iam
##itati
##titut
##tiz
##sum
##ogya
smar
##angla
confid
##stitut
##ywa
##inue
##hiev
repe
benga
##tinue
##ntinue
##eaki
##ontinue
##romi
raheng
##rvatio
##oppe
##rvation
##cot
##nnounce
##gent
##tep
##olega
##rnam
##alar
swi
##eakin
##ecular
##pris
##dor
##ritic
##halu
confide
##hote
pou
##piri
lib
presi
##iko
##lal
accor
##ately
##ubha
##shar
##astha
tuma
accord
##ommon
##rach
##essu
confiden
vib
##anki
##arry
##ticia
secul
##entur
bewa
secula
##usp
##hung
##rgu
##hawa
nawa
##part
##truc
dest
##ollec
groun
##ollect
##otiv
##gana
##poc
##ekhiy
##oursel
##jri
yourse
##logi
yoursel
##shr
##dhai
##ervatio
##ervation
##edy
##ressu
##servatio
##servation
##cio
##armi
dekhiy
dhe
##fuse
##dshi
cours
##yment
##lenc
##essur
##ressur
##dship
scie
scien
##ghter
##hore
##ley
##gus
##mplo
ell
##arein
dial
##db
##adhai
murde
##urder
pressu
pressur
##haba
##ondo
##iger
poste
##hub
##xpose
abso
##iber
provi
##iki
##jy
##bre
##roora
##roorat
##uine
##uctio
##uction
collec
##ndsh
##clud
##usra
##tandi
spre
##gul
##mac
##nad
##sban
##raw
insu
##ommunity
##brate
##iski
##nvers
##inan
##chiev
##tandin
##ncom
##asam
##tanding
##site
memor
##ecent
##shq
##ages
##erman
##eaking
strea
##gis
##ither
##lings
##itud
##usb
##arunga
mist
skil
##atar
##ekhiye
##pmen
##sess
vers
##pment
##coz
##rict
udha
simb
unb
##nywa
##ovem
##amat
##ambhal
##deos
##itude
##inite
##sband
##lade
techn
aadh
##mploy
##ggi
##arish
exis
##ections
##aroora
pret
##prea
##elive
##aroorat
##ractic
##duce
##tig
##019
##pread
##ilway
##rname
notic
##ideos
##ermi
##eetn
regi
inclu
##cret
gare
##bas
##ormati
##oxic
##early
##mjhe
##harti
##rdu
achie
achiev
##urself
##ciate
cros
##aik
##ypt
comed
##menta
##anger
##kli
##llowi
##finite
##anin
##rried
##rance
dikhat
##prov
##trict
laug
##atches
##lcom
mauk
proc
##llowin
##llowing
##niversity
##ccordi
scor
aksha
##ncrea
##ebrate
accordi
hypo
##tify
##rnatio
##rnation
##oleng
##ccordin
##ccording
wante
accordin
##ndshi
##elebrate
##lebrate
##xcite
##ndship
##achc
##layed
##achch
##uild
##frie
##ncreas
##ogue
##ahib
##oid
##bsol
##alam
sunt
##anci
##dari
##nges
sudh
##orget
##frien
##friend
##onvers
jaeg
practic
afr
compet
##ourself
shoo
vio
increa
##ivid
sprea
##24
convers
excite
increas
tomo
##essure
##olute
##elco
##uic
##ressure
vil
##rms
##esig
##tsi
bloo
##orke
##jiv
##ium
##aada
##erial
##xams
##nditi
##rass
##ekhk
tox
##ankar
##nditio
##ndition
dekhk
##tien
##atra
##agy
toxi
earl
##essin
worki
##dding
fie
workin
##anya
##agine
gree
##meer
##rike
##elcom
##cta
##romis
##18
##eatin
##chne
##fully
##rett
##ruct
##magine
##eract
absol
welc
##ashe
##solute
##hieve
##truct
##xplai
##xplain
insp
##bina
cy
##usba
##erica
##ailw
husb
welco
welcom
##usban
##rated
forge
##usband
jaayeg
husba
sain
##rok
husban
##essing
##ailwa
##oco
##bsolu
##tk
##meric
##ailway
##stom
railw
##agem
railwa
absolu
##bsolut
##ondit
explai
##amous
qualit
##owar
##ugge
absolut
##nct
##yway
##hura
##eating
##onk
doos
##mak
##aken
##otice
jeetn
##tician
##urv
##hest
wann
conta
viol
##ugs
##morr
##fair
##dvi
##ops
##ksa
##aria
uta
##emis
##stru
##nyway
##ustom
##lder
boleng
wapi
##ageme
##agemen
##agement
##nfl
##ndians
anywa
##rofessi
##ofessi
##ikka
##bsolute
##ols
kej
##halla
##anke
##titud
susp
##rofessio
##rofession
##ofessio
##ofession
##rifi
##omor
##onditi
##onditio
##ondition
##amaz
##rep
unt
##titude
##oan
##oward
##aliz
garee
##resid
##nstitut
##morro
reacti
##morrow
##aning
##lfi
##upid
##pecte
##litici
##olitici
##liver
templ
##esign
politici
amer
vaa
##hase
##ldin
##sj
##skin
##merica
##accha
roma
##ngo
presid
indus
haza
##ahaan
prin
##ndha
##pected
tomor
##omorr
##fol
##omorro
##omorrow
##nclud
tomorr
tomorro
##wher
##lty
##arrie
##uro
famo
##ohab
##veni
##where
##ocri
refu
##atie
##eje
##down
##ayal
vika
kejr
##nforma
##format
##ujar
##rpri
##apo
##nationa
##national
stup
##formati
##pocr
##icit
##secu
##reside
mohab
##riwal
famou
humes
kund
karei
##lcome
##lence
neec
##ilegi
##room
##ishi
##oosr
##pply
##amaa
argu
##alib
##odn
##ejri
##sist
doosr
inj
##ryp
##jt
##umesh
kejri
##ernatio
##ernation
preside
##umesha
##chieve
##rfu
##lers
##dos
##xamp
##ormatio
##ormation
examp
##rrest
##chta
##hinin
##fied
##xampl
##xample
##ushm
##hining
##alls
exampl
humesh
##lding
ameri
##laim
##ifie
##usal
##range
rav
##ajiv
##firm
##ominat
##itel
##tupi
##nsul
##rypt
##elcome
##tupid
ekd
##arid
##pay
##lture
##huna
##ypoc
##ulture
secr
##pad
##stak
ila
##logu
##ppoi
##erda
##ppoin
##ypocr
##eign
hypoc
##ppoint
##logue
stupi
##sider
##illed
orig
tig
##non
secre
##tudy
##sking
hypocr
##residen
##kheg
##lida
##jriw
##iticia
##jriwa
##itician
##ternatio
##ternation
##liticia
##oliticia
aada
##litician
##pocri
presiden
##olitician
##yari
politicia
##nternat
##rease
##jriwal
budd
##nternati
##nternatio
##nternation
internat
##appa
internati
##tificati
internatio
internation
##stea
##chte
sev
##elne
##epea
##ukri
##ypocri
##ejriw
##ejriwa
##tificatio
##tification
##tream
choos
##tsid
advi
##rpor
##itely
##tside
repea
americ
kejriw
kejriwa
##ejriwal
##ialo
hypocri
##abil
arres
##kend
goe
##eken
##dc
##utsi
haf
##olenge
##rnationa
##ernationa
##ternationa
##mind
##nternationa
##rnational
##ernational
##ternational
##nternational
##kra
internationa
##evie
##stead
##harath
##awar
perm
##mf
outsi
##anao
##ialog
##vail
dialo
##utsid
##utside
##lades
outsid
##radi
bhart
##mili
inten
##ishw
##ails
##rosa
##atien
entr
zer
##nstea
##nstead
##ndustr
##dustr
dialog
securi
##arik
##xtra
##ecret
##ckets
indust
##rigi
inste
industr
instea
##udde
sect
##anni
cryp
##anja
##ppene
crypt
happene
##appene
lamb
##ishwa
##xy
##appened
##ppened
##12
##gger
professi
##pines
professio
##eliver
##ento
##plie
##rria
##isl
##abit
##aph
##helne
deliv
shini
##iage
##opm
delive
##mper
##igin
intr
##nif
##cina
stati
##edd
shinin
##nui
##dis
kel
##ppine
##racy
##efa
##arria
##udha
salar
##sues
pehe
##roke
##iyaa
##resident
##riag
##ponsi
##sponsi
##riage
##esponsi
##nfir
##igges
##iggest
bigges
equa
##ichar
##eks
##30
##ppines
##ssues
securit
##bv
##eview
##____
##lopm
##opme
##lopme
##opmen
##main
##lopmen
sof
##glad
##opment
##lopment
##rriag
##rriage
##lind
##arriag
##arriage
##nglad
##rigin
##glade
##tura
##rsio
##gica
##ypto
##ocie
##onall
moth
baneg
##rsion
##nglade
##trali
surp
##rypto
##eeken
mantr
##glades
##siona
##ladesh
##iase
##lary
##anglad
##anglade
##nglades
##ekend
##onally
##ekhta
##efinite
##lone
##eekend
##anglades
##gladesh
##ngladesh
banglad
##rau
banglade
##akd
##angladesh
##onfir
##rgan
banglades
##iled
##titio
weeke
##positi
##artic
taree
##hatr
weeken
##70
##ccu
##endsh
##endshi
##endship
##nsult
##rum
rand
##riendsh
##iendsh
jaant
##omise
##riendshi
##iendshi
##lann
##mini
##riendship
##iendship
usp
##kiyo
socie
friendsh
##rer
friendshi
##olla
##0m
##yse
##ponsib
##onsib
##ichl
##roce
##sponsib
##huma
##esponsib
##shman
##positio
##position
##unta
touc
##formatio
##formation
##egal
##assa
##uspe
##riye
##pporter
detai
origi
##nfirm
##upporter
##wara
##16
partic
##khane
##anh
amm
##tition
soun
##otiva
woma
##nche
cultu
##meti
muk
cultur
##iori
##ushma
##hamm
##rpris
##eserva
##harc
##eani
##ikas
##lav
##omote
##romote
##aaaa
##obo
##onfirm
##ppro
suspe
shari
##lami
##hkar
##eservat
##eservati
##gical
##xcep
##crease
##ntera
##ciet
##ociet
##raba
includ
societ
##roa
##cinat
excep
##nz
##bc
##romise
##amas
##cast
##ilan
##eservatio
##eservation
poc
##eza
##otivat
bis
##elopm
##evelopm
##velopm
##elopme
##evelopme
##velopme
##elopmen
##evelopmen
##velopmen
##xcept
##qual
##elopment
##evelopment
##velopment
##dht
##olid
##attin
confir
pichl
##piness
aski
##glin
askin
##appine
##appines
##iorit
##ersio
##eei
##ersion
##acts
##ppiness
##cuse
##appiness
##ield
##nitel
##lise
##initel
##finitel
##finitely
##initely
##nitely
##harch
##020
##dical
wei
definite
happin
##riori
reserva
##nuin
informa
##saab
happine
happines
##inger
##idnt
##tev
##unni
##orde
marria
marriag
##uir
##rzi
##omoti
##gust
##stions
##atting
##tyle
developm
##zen
developme
reservat
developmen
reservati
reservatio
dhok
fru
##tock
##estions
##ntac
##ubin
##ollowi
##iddl
##ollowin
mothe
##ollowing
##orst
##hund
##zad
##khana
##eein
followi
followin
##ided
##alogu
##urpr
##efinitel
##efinitely
##lize
##alogue
##eactio
##eaction
##terac
##aven
##khao
##eanin
##oyal
##iddle
##eaning
##rendi
##riorit
afs
##htr
degr
##ohabb
##lowed
mohabb
##dav
##isg
##ohabba
##ohabbat
##salm
##isaab
mohabba
##sua
##romoti
##eard
promoti
##apu
aust
##nega
##pire
##siko
##ntre
reactio
##cated
definitel
citi
##sons
##inutes
##nutes
##ialogu
##stag
##ialogue
##isme
##amr
dialogu
revie
##teve
musal
##efer
##aliy
##wana
##awaz
centu
##eeing
##tus
##uid
##iar
##urpri
##arosa
##ints
gob
##abha
centur
idi
##veme
##urpris
##engi
##edar
##rism
##rendin
##nchi
##ahad
##rending
trendi
surpr
##ushman
trendin
##vemen
##ndan
surpri
##ishn
##vement
##ived
##zed
##dres
##hty
##kb
##ourc
##erfu
surpris
##utra
roc
vill
##htar
##uel
##iased
midd
##etiti
##hij
kreng
##arva
##genc
dikk
##apd
##sem
avai
##amjhe
dau
##hahahah
##gb
stoc
##illin
##nsec
##ntil
##eeks
##cipa
##chp
##hula
##kkat
##uly
##ectin
##ttit
##kdo
sochn
##ttitu
responsi
##ttitud
##ttitude
##tatu
attit
obv
attitu
##nformat
##vict
sugg
plann
attitud
##nformati
##tact
##gate
##wak
##mist
insi
##ugges
##ikkat
middl
##nsider
##ntact
sugge
dikka
##uggest
##salma
sugges
##ione
##llowed
##ndhe
##minate
##anate
bli
##ciety
##ociety
orga
remo
##oji
##genda
##rchi
##ttar
##ware
condi
##arit
appro
##peti
##ulti
##imse
##mself
##prise
##hoose
##chpa
##utto
##ahay
##ured
##ecting
##avel
tuml
##metim
##adai
##istak
##metime
guz
tumlo
hims
##usalm
##asj
statu
responsib
##unday
musalm
##epi
mista
##imsel
##bvi
##igat
##stral
##stake
##imself
##reati
##illing
##khu
himse
himsel
##raph
##hpan
mistak
##ometi
bie
##sji
##uko
##fidenc
paay
##nfidenc
##fidence
laun
##nfidence
##onfidenc
##usalma
##hans
3r
austr
##onfidence
musalma
obvi
##unis
##utta
##oft
##spen
masj
##istake
##sual
##icer
##asji
##bvio
##sjid
##yri
##tome
padhn
##lica
##aml
##ixe
masji
##asjid
dush
jinh
##rrit
##tell
nob
##essiv
##rnalist
##smi
##rrat
inspi
kille
##hiva
##pel
##usri
##ubar
sty
##urnalist
##urce
##ournalist
enti
##essive
##ource
worke
##achp
resi
##chpan
prio
idio
##tau
dhun
##emple
##obe
##itr
##achpa
##achpan
##reciate
##eciate
##qi
##preciate
##cla
##ehin
##iru
##ably
##eze
someti
##lanc
##usk
##ometim
##oal
##ometime
jeen
##ocra
##harosa
##onfe
##gad
sometim
##ahahahah
##emal
##ugu
##dress
amee
##arks
##huki
umee
##nated
deba
##fc
##23
confe
##awaa
##haree
##ikhna
gat
##ppreciate
##shtr
##olde
##anit
##phon
condit
##new
bachp
##geti
conditi
conditio
##vely
##alary
##rimi
##ppea
##ctim
bachpa
##ncid
##struc
##zy
##olar
##rani
##chaa
styl
##ppositi
##ppositio
##pposition
##oty
##tas
##isiko
##ashtr
proce
##oving
##days
##chle
##nsecu
##udda
##nica
coac
##ahir
##ginal
##ustral
##dere
oppositi
##nterac
oppositio
##rmers
##pporti
##strali
austra
promi
sast
safa
##col
intera
austral
##ustrali
##nteract
##teract
##upporti
supporti
##ccina
bolk
lel
##enui
##ribe
australi
inno
##dva
##rci
##accina
##inke
##asin
spir
interac
##ccinat
carr
##arp
##ralia
##accinat
##rtn
##tralia
##stralia
##sura
##dak
genu
##asur
##ustralia
zu
##ebat
##lici
##adhan
##ikhao
##ficer
##hatt
##fficer
badn
##cad
##poo
genui
##eedh
##emes
##spa
##enuin
genuin
##dko
##nformatio
##nformation
##utel
##enuine
##nuine
##aen
##anoo
##diot
##rbaa
##eated
eli
##elated
##isma
patie
patien
##irit
victi
##issin
infl
##terd
##ictim
wate
##oure
artic
##ticl
##struct
##ajas
##ikhne
##ified
##halat
##ncide
ren
##ticle
##adht
##pai
biase
##uote
bowle
##under
##rail
##elna
##asil
##rful
##issing
##ocked
##sas
##iole
##ambi
behi
distr
##ehind
##aces
##bate
##anoon
fes
##ican
##uspen
bachh
##aura
##jra
##dho
behin
##sthan
##llia
##ikhane
chur
##rtif
artis
suspen
##xte
##rungi
##nciden
##peec
##igina
##peech
##itl
cir
##rigina
##tary
##chara
##artin
peri
##off
speec
##onu
##tivate
##40
##phone
##sterd
appe
##pirit
payeg
##ides
##rbad
##reef
##onsid
##hadk
##eeze
##stu
##ealis
##wk
##kiya
##haga
##asic
##isp
##adda
##petit
##md
incom
##dvan
##phe
spiri
##rticl
##rticle
battin
##uenc
yest
##helna
##rimin
##rida
wak
viole
tex
##rina
##jka
##terda
nauk
##onside
ber
##onsider
##ontac
##htra
##ipat
##nake
##sterda
origina
##uza
sche
##arzi
##areef
##obs
##isco
contac
##ontact
##lts
##nced
##jaa
parl
##nas
##stome
##nsibl
puj
organ
##dhr
##entra
##etic
##ubara
##rtist
##smat
sq
##ilab
##eene
##trie
kne
##tomer
##aters
yeste
yester
##tize
##quir
seedh
borin
##esto
brah
##stomer
effe
##vori
insec
##ustome
##idat
##kup
##armers
##eliy
##haag
informat
##ddr
informati
dushm
circ
##ods
##avori
dushma
##ncrease
##rimina
##eathe
##tural
krl
motiv
##rahm
trav
cand
##learl
##learly
##hahti
##erday
clearl
##eight
##pari
##neer
##ologi
nort
suf
##ustomer
inspir
##eems
##terday
##resti
##udk
##nkhe
##agram
##sterday
##esterd
##esterda
##esterday
yesterd
yesterda
##ique
##nap
##lean
##inanc
##habh
##tima
##ickets
pul
##trati
seei
effec
seein
##rsati
##ostl
##stig
##aayega
articl
jann
##cienc
khab
zarura
coi
##ucky
debat
##minati
##ocat
##chhi
##aash
##rtifi
##mpeti
##pulati
##ompeti
laki
##ref
competi
voti
##bviou
##bvious
##secur
##ghl
votin
##iolen
##stif
obviou
##utely
##reet
brahm
##roba
##resse
##itan
##anth
##dgi
##lex
##nerat
##ailab
##raya
##cei
##ncha
consid
adva
##jb
##labl
##oche
favori
inju
##ishes
meg
##shtra
##ivil
custome
##lesh
##tters
##orri
##ished
##eats
##koof
##rns
##arbad
violen
##mpro
##rprise
##tad
patr
##riginal
##iginal
##ashtra
merek
##pes
##ajp
##ngine
conside
##ersat
matche
##ersati
##ighte
##adne
##jkal
rast
vaca
##bac
upl
##rades
##rgani
##moc
marz
jac
##inter
aayen
##gressi
##ainc
##ersh
unti
##hanti
badna
bachc
kris
bachch
##uyi
##asl
##ago
engi
##adad
engin
dres
clai
##nsecur
abl
##alise
##cure
##ulate
##olat
advan
##lable
##ests
##hatm
##usio
##ostly
solv
##raye
##hhot
remi
##usion
##vaila
##vailab
confidenc
##zaar
##tagr
##rshan
kapd
##ances
desp
##enerat
promis
##nstag
cann
##tagra
chhot
##tagram
##tenc
sear
addr
##vorit
##eag
##hadka
##stagr
##avorit
##nent
favorit
##dast
##stagra
##stagram
##ddre
aaga
insecu
insecur
##ddres
##ameen
fron
##hudk
##nig
##nstagr
##nstagra
##ysel
##nsible
##nstagram
##kdow
instag
##posed
##artn
##kdown
##ustif
rht
instagr
instagra
anc
##haj
##shay
##yself
##honi
addre
addres
krw
##bje
kundr
##esnt
##ajk
khudk
##uffe
##ojay
##khl
##tez
##gers
##rtne
##tiga
##oesnt
##ddress
##thn
myse
mysel
##iban
##oned
peel
##eari
##chen
##nhi
hojay
##ikhte
##rovid
provid
##aws
##haal
##enn
##nfuse
dhad
##94
##moj
searc
##bed
defa
##ntel
##atev
##rdast
##agli
informatio
medica
##icity
##baad
justif
invi
##tever
##anno
##hatev
##pol
whate
##moji
##ateve
##tries
##auns
whatev
clou
##lections
##atever
##irp
nin
##shall
##hateve
jaog
##artne
##tates
##ojaye
##liba
priori
##rwar
whateve
realis
##hatever
kauns
##iatio
##iation
##arshan
rit
##alke
##acks
##ighe
exte
##ebate
bene
##undra
##eps
rubin
notif
##nvert
##ntic
##hacha
towa
##eces
##ubina
spen
priorit
towar
##lter
emoj
##ehavi
##ulan
##ngn
fur
##radu
##anm
##lutel
##lutely
##olutel
##tuti
##solutel
##olutely
##lick
##aato
##solutely
##mmit
##bsolutel
##ompetit
##mpetit
competit
##elings
##olan
##bsolutely
##eelings
absolutel
##kda
##azaa
##sty
##buse
##onfuse
talib
lagn
##ardast
rus
##incy
##even
##erag
##bute
##ibil
##mocr
##emoc
##98
organi
##eye
##pira
##alal
##emocr
##nden
##lves
##unne
##wler
##chana
##urprise
assi
##rill
##assin
##nfol
##tfo
##jara
fau
##ements
##ilabl
reso
##erful
kano
##omy
##iod
##rgeti
##gag
##ollu
##hante
##upportin
##pportin
supportin
##mant
##upporting
##pporting
##mocra
##uddh
##ilable
rajas
##tigat
##ituti
insul
##ntia
##itle
squ
##ailabl
##emocra
##nior
##ikho
##vea
##eted
##hayal
##tituti
##stituti
generat
##ikhana
##owler
##gey
##eepi
##tutio
##tution
##aaya
##meda
##tainc
##itutio
##itution
##taincy
##aincy
##ailable
unfol
##aptainc
##ptainc
##iwi
##aptaincy
##ptaincy
captainc
##sary
##embers
##ativi
aac
##titutio
##titution
##stitutio
##stitution
intel
rati
##itor
##ikhi
krish
dut
##elv
highe
##ativit
##owards
##itiz
krip
##ales
##ubb
stru
positio
##plic
##times
##ague
##rca
##kaat
##alin
##ativity
##orite
##nalit
##dden
beht
##remi
democ
##ailer
##oter
nea
aayeng
##jast
democr
tele
##hallah
##tnes
##cade
##uva
availa
availab
##prove
##olli
##vorite
##egen
##avorite
##ribute
##ibute
behavi
rajn
##ariye
irri
##ectl
##ayab
##cott
##ajast
##pular
creati
##ectly
##opular
priy
##inm
##igger
rajast
##iant
kur
##aliba
##tness
sard
aach
##edical
##esso
empl
##idu
##unds
##ustin
##asthan
##inder
##righ
##shalla
##vailabl
democra
##lha
vaccina
##akad
##gayi
##fee
##atat
##udhar
##aten
##khand
##urb
##shallah
##nned
vaccinat
##sfu
##tched
##osse
##vailable
##medi
##kno
##sci
##anp
##stiga
##ntir
##liban
ghal
##fam
emplo
taliba
##ishta
##jasth
##rwi
##iple
##jastha
##otall
##uestions
##ajasth
##ajastha
##jasthan
evic
##ajasthan
##alif
rajasth
rajastha
##chal
##etitio
##aliban
##etition
employ
##teza
##nori
##ntez
##enl
##hash
##arnin
##tner
##bbe
##raft
totall
##asses
dhoo
##spira
##otally
tmh
##arning
##nkho
sour
##hakti
##pende
appea
intez
##dkiyo
##ndustry
##dustry
##ustry
##ajb
##estl
##ggl
##rno
##bard
##eliye
##erage
##brati
##elon
##cil
##ravel
##ukar
bco
##orme
nomi
##medy
##earin
pollu
##llut
##gor
##jori
##otifi
missin
##ollut
##eline
proba
notifi
pollut
##ondon
##wise
##acin
clu
##know
##foll
faid
koy
##earing
nomin
##reste
sett
##hahahaha
##follo
##follow
agend
##jhn
##cience
##imen
##ois
bcc
##riod
##ized
##nteza
##ayat
inteza
##edom
##bes
##nstituti
##hoom
##itize
##alize
##herw
##rtner
##glan
recen
##artner
##hehr
##topp
##dev
##ikaa
##aniy
##stiv
##nstitutio
##nstitution
partn
##crib
partne
##llecti
suff
##order
##sss
##ollecti
##nath
trave
##tian
##nnot
##halan
##eriod
##rested
perio
##itche
##ffl
meeti
##bera
##gland
pakd
dhadk
##nglan
chall
##ngland
wort
##risti
##bjec
##bject
##rway
blin
meetin
engla
englan
##ingi
##ighl
##haln
##ritat
##avio
##did
##stigat
hisaa
##obab
##isap
kaht
certi
##koon
##hakal
##ertif
##robab
##ibili
##hsa
zaroora
##oat
##cited
##ochna
##nstr
##ershi
unfa
collecti
canno
##hayi
##estiv
##isapp
##etimes
##eedo
##nfoll
##petiti
takl
##khar
##ulay
##aym
##onvert
##icip
##nfollo
##nfollow
certif
##mmer
##amal
freed
##nsen
##rrita
##eiv
unfoll
##pecti
##div
##rvin
disap
unfollo
##ego
##arting
##ittin
##ores
##rves
##osin
##nle
aukaa
disapp
highl
##ership
##inated
##antri
irrit
probab
##nigh
##0s
##anen
##getin
##okes
irrita
##night
##geting
##arried
destr
##harid
##icipa
##ented
##dte
prett
##iority
##metimes
##eine
##ometimes
lond
##ukaat
##happ
anim
##ibilit
##ntar
##ecure
divi
##erb
##0c
##alw
##itar
##chare
##verag
##rritat
##dwa
##otific
##aand
notific
##atai
##otifica
irritat
notifica
##osing
mino
##argeti
##argetin
##argeting
##rgetin
##rgeting
##nky
targeti
targetin
majb
##kaln
##pag
##ertifi
finan
##atf
##ults
##gly
##ules
tumar
##otos
##otions
shahe
afri
##inor
##elve
##itting
mostl
##khaye
##loge
##twa
##sful
##pulatio
##pulation
##omedy
certifi
##ahahahaha
##dard
eit
##otificat
##otificati
##otificatio
##otification
vishw
##umi
##standi
##ecei
notificat
notificati
notificatio
##anega
##standin
##mana
##standing
##gist
##hahee
##scrib
festi
festiv
##two
##adak
financ
##omotio
##omotion
##ssf
##ffort
##kills
##olke
##inme
##romotio
##romotion
promotio
##atus
##nged
##trin
effo
shahee
##lusi
##tarti
##okh
availabl
##onsti
##ogram
##iry
##acr
effor
##yana
##orw
##ebri
##inko
##nfai
##sun
##ddy
##issed
##ikaln
nikaln
##rogra
##weete
londo
##reedo
ros
boos
##onda
jaro
gadd
nomina
##onalit
##riority
##salman
##ruk
##nversa
kariy
##ojat
conversa
##onversa
##ahne
##oost
##ored
##unct
##strati
##annot
##have
##alum
##atis
##mpu
##eedom
##bsc
disg
##ritie
unfai
##indl
##ssfu
##ssful
hojat
##reedom
##rities
##nfair
summ
utta
##istry
##liam
##unts
##kash
##khate
##undar
##arach
freedo
##gum
##ended
##ancy
##barda
##halle
##brit
##rdw
##abard
##lance
##shra
##preme
##ujara
##60
##ckd
##upreme
shaka
##abarda
##versat
##back
##rentl
##rmed
##rently
##versati
##yor
winni
##rsatio
##rsation
##versatio
##versation
##ersatio
##ersation
espe
##stric
perc
##alwa
##nef
##akoo
##ebrati
##elebrati
##lebrati
celebrati
##ntire
##nversat
conversat
##onversat
##achan
##epli
##nversati
conversati
##onversati
##hooth
conversatio
##onversatio
##onversation
##nversatio
##nversation
##ingin
dol
fran
##usalman
##rely
##uffer
##halti
##ysica
##adkiyo
cryi
##hysica
cryin
##lebri
##ebrit
##ismat
bhab
##hysical
##ysical
##heap
##lebrit
##gatio
##97
##elebri
##rogram
dars
##gation
##elebrit
##entia
##80
##itis
##chy
entir
##ploa
##pload
clic
celebri
##rney
nominat
##angn
##gage
celebrit
##hotos
dhadka
uplo
##trib
livi
uploa
repli
##inee
##aths
##issa
##unti
progra
##yco
##ndol
##egree
##hirt
##tartin
anj
##kalt
##rtific
##oldi
physica
##leme
##sgu
##oile
##therw
##erwi
##ikalt
##erty
nikalt
##verage
##khil
##erry
##ndem
##dicat
##got
##tarting
##ikle
##eede
##rwis
##opo
##arbaa
##rwise
ral
lor
solu
##tribu
otherw
winnin
##lap
##crac
##erwis
##erwise
##vee
##inish
insti
##izen
##hae
voo
##herwi
##herwis
##herwise
##ichle
##eather
##degi
darsh
##therwi
##therwis
##therwise
##peat
##rific
##elte
##bia
##twor
##volv
##tury
##ntell
degre
##xcited
##dkan
##entury
##ntury
##amk
##motions
otherwi
otherwis
kanoo
##jata
##epeat
##inging
##07
##cult
##adkan
##tratio
##tration
##hadkan
livin
##eten
##dum
##ffen
rais
##etne
##tank
motiva
##fac
meani
##tribut
eith
##mpre
eithe
lung
##kela
##tatus
meanin
##mid
intell
##gth
##ckdo
lij
##imal
##ontra
##mov
##retty
##abir
##urk
##_____
##urnam
##mjht
guza
##orwa
##ikhaye
##you
daf
surv
##ompetiti
##mpetiti
competiti
biw
offen
##hoe
saz
hid
##elfi
##ebs
##khs
motivat
dic
##ahane
##oces
fini
##mble
##imate
##eagu
piy
##elta
##umei
##bardas
##aksha
##bardast
##file
##urname
##lata
##ofil
##llar
##abardas
##abardast
solut
##anwa
btay
milen
##omu
##bn
##bani
##roces
##apna
##eague
##kheng
##wli
inci
##auta
agg
##ritici
##ajan
selfi
critici
##rofil
##ehra
##ences
##www
trie
profil
##teh
##ibera
soluti
##strict
solutio
proces
##ajay
consti
##eresti
##ceiv
enc
##efam
##noce
##hamma
##minatio
##mination
##taf
##mbo
##essf
##gline
##iman
##rachi
##ctivi
##essfu
##essful
##lash
##chai
jaroo
defam
bott
##nals
##aching
##babl
scar
##hupa
##lems
##rocess
##ocess
##dve
##lluti
##tives
polluti
##olluti
##agne
##istic
yada
##amed
##onstit
statio
##sai
##dp
##ajori
##oyc
##onstitu
mult
##rugs
##stanc
starti
startin
##ansh
keli
tagl
##grap
##ofile
##rofile
##sper
##gand
##ckdow
##ckdown
##blems
##jorit
##pie
tagli
majori
##roblems
##oblems
##aglin
prade
##ariv
##agline
##sear
scienc
##obabl
##robabl
taglin
##nality
##akhte
batat
##wlin
##rkat
##ajorit
##para
humei
##nerg
##ucki
##ciou
##cious
nove
ener
##khega
##esea
##rbaad
##erves
##ttend
majorit
likht
##appo
cheh
##ariva
##heti
barbaa
##aunc
##arbaad
bord
##emov
shik
##aunch
##irse
##arkat
##nah
##xten
probabl
remov
pariv
exten
##tizen
##itual
lett
##ansa
kic
angr
pariva
perce
malu
##asoo
##right
##esc
##rward
libe
##vant
##kshay
##nsha
enga
##efull
##nsk
##aante
##wes
##onic
##pra
##rud
ita
rath
fiel
##llutio
##llution
pollutio
##ollutio
##ollution
akk
##alid
##cribe
##ockd
##heb
##rahi
legen
##otag
##egend
##ockdo
##ockdow
##ockdown
